f1
f9
dc
12
02
dd
fe
32
3d
29
1c
35
60
4b
23
10
e4
d5
c3
d3
da
e0
f1
df
db
fa
f0
20
15
23
23
58
6d
4c
0e
49
3e
15
f0
f6
0a
09
eb
ec
f1
05
1c
0d
f7
27
04
17
11
20
3e
1f
1d
dc
09
e7
e1
b7
d5
ee
c0
de
1c
2f
31
0a
0a
26
2b
1d
df
f0
eb
e4
f5
d6
fd
e6
df
03
f4
df
01
10
19
06
26
1b
08
05
0f
0c
01
03
f7
e9
0b
14
e7
f3
0e
1d
19
1b
22
15
28
22
2d
40
11
38
2a
2b
1c
04
25
1e
3c
1b
13
05
e6
f3
03
e2
f6
e7
f4
10
0e
0b
06
04
17
2b
2a
18
10
05
12
2d
16
e2
03
eb
1d
20
02
ec
1e
fe
0c
d0
e0
08
03
2f
12
fe
15
39
2a
43
39
fc
24
35
2a
39
2f
1e
e4
d4
f6
d8
f4
db
00
fb
e0
0a
27
43
3f
1c
ed
10
06
29
14
f8
d0
e4
0d
00
0c
f4
15
0e
0d
01
f8
0d
3d
16
f9
0c
ed
1a
46
09
ec
b9
db
2b
0e
09
f8
d3
d1
ff
07
2c
13
0c
19
14
1b
2b
07
10
f5
10
03
0e
0e
06
f4
f0
03
0e
17
10
19
19
f2
db
f5
0d
0b
db
db
ea
d3
d3
bf
d0
b8
dc
de
d4
d9
e5
d9
e8
df
0b
f7
00
fa
da
ec
0c
21
1f
0b
ef
11
0b
14
d9
de
f4
f2
f3
ea
0c
0d
fe
e4
e7
0b
2c
0f
f5
1c
06
1e
0d
ea
1a
ea
cc
e6
0f
d1
c1
9c
9f
d5
9e
89
81
8a
93
17
1b
09
13
e2
14
fb
fd
f7
e4
03
d1
cc
f6
fb
d3
c3
c2
be
b4
0e
1d
24
36
0b
31
1d
28
fe
05
2f
09
f8
f4
f9
e4
f3
f2
cc
96
2c
30
39
05
e4
32
05
eb
f6
17
b9
a6
a4
98
ef
fe
01
fb
f4
11
0b
16
16
28
25
11
fd
e4
07
02
eb
d8
ed
e1
ed
f2
f5
1a
ef
e3
08
08
f2
12
14
11
ec
08
15
1d
fd
10
ff
13
16
f5
f1
fe
0f
0e
00
1e
05
e8
e5
1f
04
f7
08
1c
12
16
fc
29
0b
f7
e2
d7
f0
10
fe
ed
f6
df
f6
f8
11
09
1b
f9
dd
0a
4c
4c
4a
ed
21
1f
1e
f8
11
21
04
d7
da
12
35
14
47
58
1d
18
28
41
12
0f
02
26
38
1b
15
fb
fa
ec
cc
30
2d
05
fb
37
38
31
24
54
1b
c5
d8
f7
e8
c5
06
fe
e3
df
c8
ed
fb
e4
e6
f9
d9
18
3e
35
2d
ca
0d
f7
d4
c4
f1
f2
d6
ef
0c
02
f3
f7
20
1c
fb
ee
35
23
15
ef
e4
1f
0f
ef
ff
f3
e0
ef
02
ff
ed
f1
fc
16
f7
ff
07
e3
0f
e1
ea
ed
f7
1d
d3
ef
f0
ef
e7
ee
d8
da
c6
e0
da
cf
d9
f1
16
09
f2
ff
06
2d
e1
11
19
02
23
ea
e7
f9
ee
e2
fc
ec
f3
d0
01
14
e7
fc
00
13
2c
2c
1a
20
29
3f
27
41
de
d2
23
59
56
14
eb
e5
ef
05
fd
e3
fd
ea
f2
e6
ea
e9
ed
f6
ec
f3
02
1b
14
dc
fd
ef
00
f9
0f
33
e9
e6
bd
f7
2d
24
17
e8
d6
f7
14
25
fc
10
fe
fd
15
12
33
26
1c
f5
cc
e4
07
4d
4f
0d
b3
bd
1b
56
40
d9
c0
f8
0d
15
14
fc
fa
f6
0f
f2
18
3b
24
0d
f1
e3
27
28
30
01
c9
f6
06
2b
1b
d6
14
ec
01
e4
c5
d5
e9
c8
da
c8
e4
07
e2
c8
be
f5
02
04
e5
cd
f5
14
3e
f6
fc
00
e9
eb
e6
ea
f4
e0
dc
e7
e3
24
f2
08
e8
db
33
10
f6
06
d0
11
f2
1d
1a
f1
29
1f
07
dc
f6
06
ed
09
fc
0a
15
3d
41
1a
37
21
2e
24
39
2a
1a
30
34
25
16
e9
cc
ec
dc
da
f2
e9
17
26
14
f9
0d
0f
1e
12
dd
12
18
e2
cd
dc
d9
ea
d4
e1
16
15
ff
09
2a
3f
0f
0e
01
12
f2
de
ee
e4
13
0b
ea
e2
f7
18
f1
de
e1
f6
13
14
09
02
15
13
12
05
fd
08
18
fd
15
17
f8
10
ed
04
ef
f7
15
0d
01
03
f1
f0
0d
f2
0f
ff
25
e5
d5
cb
cf
06
c7
d3
dc
be
d5
cd
ba
e1
ca
e2
f5
08
da
ed
eb
03
04
16
17
24
12
fd
13
21
17
de
de
e3
0a
f5
d7
de
d9
ea
f5
0f
e8
fb
fd
01
19
19
06
ec
e6
20
dd
c1
bb
13
05
e1
f8
14
11
0d
29
5b
3f
f0
23
0b
d6
cd
db
04
06
f4
ec
f6
e0
bf
08
11
2d
de
16
37
36
16
f2
0a
0d
f5
e4
c8
be
b5
e4
f3
13
f3
0c
10
26
24
40
17
14
03
2f
eb
f7
b2
d1
ed
c7
a5
c2
00
ee
e7
1c
0b
05
fa
1e
0f
e7
00
29
08
ec
e4
e3
0f
f1
e6
f2
15
1a
0c
ed
15
31
2f
0d
2c
12
0a
0c
02
e7
eb
f3
1c
10
f5
fa
f1
22
f2
d6
f8
08
ff
db
e7
f0
1f
06
f8
fe
f7
1a
f3
10
f0
09
f1
12
02
fb
e3
e8
ec
e5
f4
f0
11
0b
18
fa
f6
1b
04
2b
22
0c
f5
30
0d
e3
ee
ca
50
26
f9
00
08
2d
4b
20
10
0f
08
13
11
ff
d8
f8
fa
21
26
1e
01
f0
08
02
fe
2c
26
40
3a
4c
f1
f0
2e
2f
17
f9
d5
08
13
1f
05
f9
12
02
09
fb
27
22
fa
1f
0d
f1
f2
f0
d9
f6
ab
b2
e5
d9
3f
ec
db
07
f2
2e
1c
ef
e2
f5
08
f2
10
fe
e4
ef
e0
de
e4
e7
29
05
e5
04
f1
2a
23
fb
f1
fa
f7
16
08
f2
e7
09
e1
f9
e4
0d
da
cb
c6
df
e9
16
f6
f4
e6
db
32
16
e8
e7
ff
21
25
fc
0a
fd
e5
f9
fc
f0
f1
0f
df
03
f4
f1
28
13
fb
ed
fb
21
2f
0e
fc
07
fe
23
1f
1b
fd
35
0e
2a
3c
13
10
22
11
0d
db
0f
15
03
fd
fd
e0
c5
ca
ef
09
e1
04
08
1b
ee
e3
e3
0a
f8
bb
d8
fc
ca
a6
d9
c7
d3
cc
f6
0f
0a
ea
f1
18
10
0f
25
0b
0d
01
07
f9
f7
f9
26
21
2c
3d
49
46
3e
3c
3e
3c
19
54
42
43
2a
f9
1a
ec
06
0f
0a
fe
f4
ff
f2
27
16
18
1e
06
0d
36
11
25
f6
ec
0f
ee
f6
f9
f3
05
e1
e9
d9
f5
e8
06
ea
ee
09
dc
0b
e6
09
08
ed
f3
07
11
0a
f4
df
f0
f1
03
fa
e0
e7
f7
eb
eb
e6
ec
09
0a
f9
15
f8
f8
f7
0f
1b
f7
0f
e5
10
08
e2
d5
fb
f9
00
01
dd
f5
26
31
f3
e6
d7
4a
42
fd
eb
05
19
1a
30
1f
0d
e1
e5
fc
24
e8
12
28
f6
ef
0e
1c
f7
dc
f5
f9
f8
e8
f7
22
27
a9
d7
f9
18
21
d1
e5
b5
f2
d6
15
15
ea
eb
ea
f7
0d
11
fa
e6
1b
fb
e6
ce
cc
42
fe
ea
c4
c6
3b
43
0d
d3
e0
1b
17
45
23
f1
02
ea
24
f7
e7
ed
ec
0d
ed
ec
24
11
fe
06
db
1e
1d
0c
0d
ff
0b
03
11
1d
fa
f9
f4
10
f9
f6
d6
d8
dc
e7
d9
d8
da
e9
f2
e1
d9
fc
13
03
09
de
03
21
20
0d
e6
db
fa
15
f9
c3
c7
d4
df
e5
f7
d2
f7
dc
fb
e6
e1
fa
0d
12
fc
f6
f9
08
24
c2
25
4a
2c
d5
da
10
09
ce
eb
ec
e5
bf
d3
e5
d6
bf
e6
d9
fc
ef
da
e5
de
e7
2e
51
1c
e4
fa
28
42
d3
f1
21
42
10
eb
ff
2a
42
00
d5
31
33
1b
16
ea
fd
10
e3
c8
02
03
0b
ce
03
52
39
fa
dc
34
4d
f5
db
01
3e
f4
b0
e7
ef
2d
00
ee
ea
dd
f0
f2
12
0b
df
09
10
03
d1
f6
1f
03
fb
cc
dd
1c
0f
ef
f7
fa
10
0f
00
07
f6
f4
21
1a
0a
e2
17
19
07
04
f9
44
37
19
25
35
4a
26
23
04
07
22
16
0b
1d
ca
da
ee
ee
eb
de
01
0e
ec
cf
e2
0d
f9
f6
f6
03
32
27
12
e7
19
28
1d
0e
f6
e2
01
2d
38
28
fc
14
02
0e
26
f6
e2
17
22
37
fc
27
3c
2d
19
23
41
18
e0
e7
f2
0a
fd
e1
fd
24
ec
e6
e8
02
f1
06
13
f3
1e
27
37
06
dc
d8
0f
f1
d1
eb
f2
19
3a
0a
07
de
fc
4f
3a
28
ee
2d
3b
07
1f
ea
f3
d5
f9
0c
05
cb
06
24
30
2c
f1
18
f3
f7
07
fa
f9
fa
00
e0
03
ed
ef
fe
ef
0e
ec
1c
0b
13
07
05
14
03
ff
dd
02
e8
ca
d5
fd
f8
d7
ee
d1
0d
e8
f4
f3
d1
e5
08
04
1b
f3
00
ea
03
dd
fc
fb
f5
cd
d8
d1
f9
ef
da
e2
cd
f2
05
de
f4
ec
09
f3
09
1c
04
18
01
12
14
17
22
16
20
07
fc
e4
1d
28
2e
23
d4
cb
d7
ea
ec
d0
b5
cc
07
02
19
f2
e5
da
f6
f9
2d
3c
13
0b
d3
ec
e3
d8
f6
e8
e8
d1
c6
d4
08
f9
f2
f5
d8
25
19
18
fa
fd
f4
fd
dc
e3
fb
df
b8
e5
df
d7
04
1e
0f
05
15
02
2d
48
35
26
d5
de
30
2f
42
ec
e4
eb
bc
df
12
15
11
0b
e3
f1
0b
05
f5
01
c5
d2
eb
e5
05
d9
e9
e3
fd
0c
02
dc
f5
dc
02
11
ff
14
12
27
0b
48
24
10
31
f3
1c
0b
1a
08
19
fa
fd
e5
18
05
1b
15
dd
e2
1e
0c
28
fc
fb
08
02
26
08
fe
cd
eb
ef
ea
02
e1
f8
d2
e2
ec
ca
e4
00
13
11
cd
bd
cf
37
17
d9
a2
df
32
0d
c8
b3
1c
2f
fc
b2
1e
5a
1a
1c
fc
07
eb
f2
e7
f5
e0
f2
04
ed
0e
02
28
09
c0
e8
2c
3a
dc
ec
11
4a
2b
b9
e7
0c
00
f6
21
29
df
12
07
0a
1f
cb
e6
f0
00
04
d9
b4
e5
2a
0a
d6
b6
06
40
f1
ff
ec
02
f5
1b
0b
e8
e0
f5
0d
da
d5
14
1d
21
e0
e9
f1
27
0c
d5
fe
23
28
1d
e7
fb
fc
ee
2e
15
2a
10
1b
14
07
14
0a
36
19
fa
e5
22
30
00
fb
e4
14
06
ef
0b
f6
e1
f1
19
ed
f9
d7
0c
fb
03
ea
0b
10
10
e8
da
f7
29
09
f1
f0
14
1b
14
00
1e
2e
42
2d
fe
2e
14
1a
d6
0d
f4
d2
dc
d6
14
fb
db
09
0d
36
2c
1d
33
f7
29
2e
07
e1
cb
06
31
fa
c7
b7
fe
fd
d4
da
f2
1d
1b
14
2c
27
0e
10
01
0f
ff
0b
1f
e5
f7
0b
b0
e7
16
3b
67
02
09
3f
45
18
0c
3f
26
1b
f4
d9
e7
cd
c8
f8
f6
0f
03
05
0e
f4
05
2d
26
16
f8
1d
04
19
f9
fe
e1
fa
dd
e9
f4
fa
ee
ec
12
f3
02
02
0d
06
ed
f8
fe
0a
f9
d0
f7
06
e8
e1
b8
c1
dc
d7
da
bd
bc
f2
f1
f7
e4
17
1a
00
08
07
01
2c
09
09
11
03
1e
fc
ed
f1
e7
f7
eb
01
e2
ef
dc
01
fc
f4
2f
0e
01
d6
e2
fb
f8
db
26
0c
ec
d0
28
4c
34
34
01
0d
41
20
13
03
01
36
f0
ef
fb
ff
05
d9
c6
b3
de
17
17
00
07
28
ff
fc
f8
0e
23
f3
d7
d0
12
2e
e7
f2
c6
ec
ff
16
16
0e
21
16
11
23
2e
29
25
19
d7
f2
08
fd
19
ef
f7
08
41
65
fb
f1
02
08
f5
1c
2d
ef
06
09
f9
0f
ff
ef
f0
f8
0e
e9
ef
05
20
f6
e2
f2
1d
3c
2d
06
15
f3
35
33
17
ef
f6
1f
1d
f6
d1
bd
d3
e4
da
b9
f2
ec
e3
d3
ba
08
15
06
eb
fb
0c
05
11
08
e7
e3
0d
f8
ff
dc
e3
df
fa
dd
dc
da
e8
e6
e0
ef
ec
