ce
fb
18
40
fd
33
3a
43
05
38
11
4f
ed
ff
14
b5
c0
98
dd
e6
f5
84
9e
c7
b8
b8
e4
1e
f1
c7
3c
10
3f
f4
0d
de
31
60
1c
27
56
17
4a
06
3c
f8
f4
a1
a9
a2
fc
c0
fc
dc
a6
20
99
91
81
c6
4c
1c
9b
29
e9
17
07
3d
21
19
08
56
37
29
4e
d0
1f
17
17
30
e8
bf
15
be
bd
a9
98
db
e0
dd
0b
0c
1c
ac
a3
15
13
25
f7
f4
54
f8
ce
b5
b6
1b
28
a0
a9
38
2f
cd
b0
ec
01
1e
bd
b4
de
17
5f
b9
d3
cd
2a
ea
97
be
f1
2b
c1
c6
cd
38
ec
db
9d
01
d6
46
f1
a1
a6
16
08
15
b1
a7
a8
ec
