fd
f9
0c
0f
01
ea
f8
f7
dd
c6
f6
e5
fc
07
08
11
07
09
f4
13
0c
13
0b
e4
f1
ef
03
f0
ff
05
18
11
2c
06
03
0d
14
20
10
20
d9
fb
ea
cd
cf
fe
13
12
fd
e3
11
e2
ea
ee
1e
0a
04
15
f8
30
dd
d9
d8
fc
02
ec
fb
0a
11
ea
df
f4
0b
0e
01
0b
00
05
f5
e1
e4
10
48
0a
21
02
de
e4
21
06
f5
07
f5
ea
f6
e9
06
0b
ef
f5
20
f1
e5
0c
f5
26
f1
f1
fa
00
08
0b
38
12
10
0f
e3
0f
ff
e7
00
26
2e
f8
c3
06
2d
24
0d
0c
05
1e
ff
09
2b
08
21
1a
0c
17
ea
0a
01
e0
d8
f5
0a
01
13
11
ea
1f
2a
ed
ee
fe
11
e4
08
ed
30
0f
1e
02
0a
06
d9
cd
e4
e2
2a
0d
04
fb
fa
df
ed
e2
ee
e5
2e
09
0e
15
10
08
06
32
11
02
20
fb
fa
0b
fe
06
09
02
f1
bb
0f
1c
11
0b
1a
f7
f3
e8
19
26
ef
f4
e0
f3
da
0f
19
0f
fc
1a
ec
f6
17
1a
02
f2
13
ec
09
f0
03
e2
ff
04
f6
12
2b
0d
e4
fa
04
ea
38
27
ed
09
ff
ef
ef
f0
0d
db
bc
e7
e1
f1
cf
03
e9
02
19
f6
f4
fd
01
ec
c6
08
f1
f8
e0
cc
fc
fb
ee
f9
02
f1
ec
b7
16
03
22
1e
fc
1c
16
07
12
17
07
fb
de
dd
d0
ef
03
0b
e8
fb
fc
e3
f0
ef
fd
f3
ea
04
e4
19
f9
d6
fb
e6
fa
fb
2f
33
39
1f
ec
eb
e4
e6
f4
e7
06
06
07
17
d8
e4
1d
25
09
d0
df
f3
ea
fa
e3
d6
e0
08
fd
e0
f8
f7
00
0d
0c
ed
fe
fc
26
0f
e0
10
27
29
d5
f8
d3
f8
f0
0f
05
24
f7
01
d9
0f
00
f1
e2
fc
2d
11
0a
0b
fe
14
05
12
fa
14
05
e8
f9
f3
f0
09
f7
d0
d1
10
f2
1b
07
f0
02
d6
c3
b6
eb
1c
de
e5
c6
fb
18
c2
d9
e5
f4
10
fe
fa
03
05
01
ed
fc
ec
d8
08
39
17
00
f4
00
2d
18
fb
06
ed
24
29
05
c3
e7
10
16
28
f3
f7
e8
05
00
33
fe
f6
fd
4a
65
dc
fe
0f
13
22
1d
fd
dc
07
05
02
02
cf
f6
f8
16
07
f8
1e
15
07
55
3a
06
fb
e5
c9
30
f3
c9
ed
21
3b
05
db
eb
f3
e6
f2
08
f5
fd
fd
0c
fc
20
07
0d
14
08
31
09
f1
17
d5
04
d7
e5
c8
03
2e
1d
42
1e
0c
fe
04
f5
f9
ff
18
35
36
29
0f
f3
06
11
0c
f0
e6
2d
29
16
05
e4
11
25
15
fe
f8
e1
f9
0f
1e
da
d7
17
02
0f
19
40
e6
e4
17
f0
1e
e9
03
13
fe
26
31
19
06
f1
f6
1f
14
0c
0d
ff
02
17
04
19
35
0f
26
09
02
1e
c5
d6
e0
f4
0b
0f
16
0c
e6
f0
19
f5
04
04
e8
fe
2c
3c
dd
c9
e0
07
02
12
fa
f4
3a
f9
f7
fd
e6
1b
0e
15
15
10
0a
13
25
16
1a
f6
ea
15
32
14
2e
f0
09
ea
f7
dd
1a
10
22
12
28
18
02
f4
0d
1d
e3
02
dd
bb
e8
11
0f
03
e4
de
f8
0f
db
e1
d9
18
2b
ec
14
f8
0c
03
10
3e
f8
fe
06
06
fc
a2
cf
0d
1d
17
f9
f2
ff
e1
f0
00
07
16
3e
18
02
1a
05
f8
04
e9
03
f4
f2
e0
fb
21
05
f8
15
03
1e
10
0e
00
19
2c
f0
e5
f0
f2
15
03
0e
26
17
23
fd
e3
f5
09
02
e2
d7
f3
ec
03
12
15
3c
16
1c
1e
0f
ec
ec
fb
1b
05
10
1c
03
0f
25
1d
31
11
f4
d5
ee
02
c7
0a
ff
34
22
c4
e8
c8
df
e8
f5
eb
0a
f4
f3
0e
f8
5b
37
fc
12
f0
39
f9
0a
da
e5
35
eb
2f
ff
f5
24
e7
ea
f2
ff
fa
f3
17
06
df
e5
f7
fb
e7
53
01
ec
f8
2b
34
26
f7
d4
0f
02
23
0c
f2
10
f0
ff
04
fe
10
26
15
ed
f7
fa
f2
0e
ec
e8
e9
f2
cb
05
01
c8
00
e0
f4
1e
fd
05
24
0e
23
02
c9
f4
10
26
ff
92
c3
f0
f1
ee
e6
ed
01
0b
ec
0c
e6
f2
f9
e5
f6
11
f1
e7
f1
09
09
d1
f6
f9
08
e6
e3
df
f5
26
0d
ed
e8
ff
ef
fa
fb
0c
fc
09
0f
fb
04
fb
d3
ec
e6
e3
ea
17
36
d2
e2
f6
17
5c
12
cb
f7
00
30
31
1b
17
25
23
26
0d
14
ff
f8
e1
01
fa
ec
09
1d
f3
d8
d0
de
03
22
00
0a
dd
ff
f5
06
11
06
fa
04
0a
fc
ed
ef
ec
07
03
da
0f
f7
27
a9
c8
11
07
ee
fd
c8
0d
14
f1
0e
f2
0e
2b
1f
09
f8
ed
f2
f9
01
28
f0
ef
e7
dd
1a
57
fb
dd
dd
13
0c
23
f1
00
f8
f5
17
09
e6
0f
0e
2d
08
f5
10
fe
fe
e2
4e
13
fe
f7
18
2f
05
17
f5
f2
04
1e
24
15
fc
16
db
e7
f2
d5
fd
0b
e1
f3
02
d0
30
19
f5
e6
d3
fa
13
14
04
ee
e2
02
07
fe
dc
21
22
01
23
d0
dd
d2
2e
0c
10
1d
f5
f9
10
fd
fa
23
ea
24
f1
0e
0c
05
0b
15
ef
fe
01
09
1a
b1
eb
e2
14
f4
03
00
01
15
fe
08
e9
26
0d
e8
10
16
25
1f
e0
df
f6
f8
0b
f7
e2
0b
22
ed
28
fb
f8
1f
29
ed
0a
fe
ca
d3
f5
08
21
1c
09
e1
d9
db
df
f1
d9
b6
e4
0c
1b
ee
e3
e4
15
16
fb
f5
06
20
13
f6
f5
1d
e8
f8
fb
07
21
fb
14
f8
ee
00
e9
dd
44
2b
0f
12
07
18
27
e9
05
05
06
3b
17
e8
f4
0c
f9
f4
05
ec
13
f3
10
1d
0c
ee
f9
22
ff
f0
19
0e
16
e8
0c
01
17
2e
e4
f4
1f
fe
f9
e6
04
e3
05
1f
0d
06
0b
d6
01
03
f7
0d
fe
ff
ec
ec
fd
05
06
11
d8
f5
fb
2d
2b
f8
30
2b
19
1e
1e
ff
23
24
f5
f8
21
f6
0c
18
1f
26
0b
04
0f
00
05
de
ea
f9
10
f2
27
0f
18
f8
cf
e4
f2
df
05
d3
d7
f8
05
09
21
30
29
04
08
1b
43
3c
2b
1e
05
fb
2e
15
15
ec
35
0b
20
0f
34
09
30
f7
03
27
64
13
eb
10
0a
18
ef
f3
04
22
15
30
00
f5
e7
19
01
f1
15
ee
fb
16
1e
10
0d
1e
1e
03
02
e5
ff
2a
11
1f
13
0a
fb
ff
08
df
05
06
12
f9
12
0b
fc
16
03
00
12
f3
08
02
f5
0a
09
03
01
ea
ed
ef
e4
06
db
05
18
ef
e9
05
c2
c8
0d
e8
d7
c3
cf
ec
0d
fd
07
30
11
f4
25
08
1b
f4
eb
27
2f
f2
1d
14
e7
05
20
14
10
dd
df
fe
ea
0a
01
fd
e1
e9
f1
f7
05
0d
04
f9
e0
f9
f7
11
19
34
17
21
15
18
28
43
53
14
fb
0a
f1
12
01
e5
24
12
28
0b
e5
1b
01
e0
0f
12
e1
f2
0b
19
ce
e1
c4
1b
02
09
30
d9
ed
f4
0e
2e
f8
e7
04
03
d1
0a
fe
09
fa
e1
a5
fb
f5
ea
e9
d3
12
0c
09
10
1b
0f
22
22
19
01
f1
0b
0c
ea
11
0f
ff
f0
07
21
ee
11
16
f6
f0
fd
ef
eb
25
08
f3
07
f8
f7
10
0d
16
f2
0e
c6
cc
f9
12
35
ee
e9
f5
04
02
35
2a
12
e3
f0
eb
06
f4
01
0d
01
29
f5
fc
fa
dd
1b
0e
f9
ec
da
de
db
fb
e5
ef
ea
fe
e4
f6
f4
13
04
0f
fa
1e
02
1b
0d
e4
15
07
0c
39
36
34
12
08
24
50
66
39
f6
e6
f4
02
1f
fc
d2
06
0a
d9
04
e0
32
30
26
28
10
35
50
fc
eb
fb
fe
fa
05
02
16
0b
04
14
16
e5
08
f4
0e
1a
fe
08
08
0e
dc
de
02
ef
0e
0c
14
13
0b
23
11
1e
05
1c
13
20
04
35
2f
00
0c
2c
f6
fa
ed
05
f8
fd
02
fe
fb
20
d6
ef
f5
fb
de
e5
cb
c0
e1
ea
dc
e0
d5
b4
ef
b6
f7
f8
17
ff
c7
c1
e3
01
e8
fc
07
1b
fd
df
03
05
f1
ee
eb
2b
28
00
f1
30
03
22
36
fa
0e
20
2d
01
f0
0d
17
33
0b
04
e6
e4
dd
d0
f5
f6
06
26
12
1c
37
10
2a
20
29
21
f9
15
29
20
0b
0e
0c
0e
d1
d8
fb
00
f3
04
07
0d
05
25
21
11
fb
ea
f0
08
05
02
04
fd
07
fb
e4
f9
e8
db
da
fd
f1
eb
16
0d
df
f6
fb
fa
25
d3
f2
d2
f6
02
07
fb
e2
0e
f7
fb
ed
f3
ec
f2
e7
ed
e8
e6
fd
df
0f
13
42
11
f7
3b
28
35
14
0b
2e
0d
34
f0
08
eb
f3
ed
e8
0a
03
15
0a
06
1b
0b
d8
f5
01
10
f3
f2
18
0f
1b
07
0b
f7
fa
2a
22
23
0c
f2
0c
d2
eb
f5
dd
f2
16
1f
27
1e
1e
0a
ec
f9
16
f4
ed
0b
1e
eb
f9
f8
0a
05
fa
e4
e5
ba
d9
d9
e9
b6
d4
df
d5
fe
f4
01
fd
f5
fb
d9
e6
1f
11
18
d1
18
f4
00
03
d8
e7
0b
ed
fe
0f
25
03
03
0a
f6
30
0b
15
16
ed
06
0d
ff
dd
d0
0b
e9
ec
f3
ec
01
03
ff
fa
d1
e3
ae
d2
e3
eb
0c
eb
fa
0b
dc
f3
0c
f0
1e
31
31
05
03
f3
d5
e1
fb
04
e7
fd
13
29
13
ed
e4
fe
e8
01
f2
e0
d6
e5
15
eb
f4
f6
14
f1
e6
f9
f5
06
1e
08
09
eb
eb
fb
14
1b
33
1c
16
15
37
2f
e8
13
02
0b
21
dd
f5
fb
25
0f
06
19
0b
18
fe
03
29
0c
ff
f8
f8
ff
08
3e
df
f0
e5
f4
de
01
10
05
fb
f8
f7
e6
04
06
e0
dd
e2
0c
f4
e2
f7
fc
f0
1a
10
10
02
11
eb
f0
d2
f2
f5
13
f9
e5
f3
ee
ee
01
02
f7
08
17
02
2b
26
0a
05
e7
15
1b
10
fd
e6
ff
f7
f6
f4
e5
18
36
1b
0c
23
4c
2a
f2
fc
fa
e7
d8
f2
e6
e3
eb
fe
fe
23
19
eb
03
02
17
13
10
f6
ee
25
21
27
48
03
17
df
2c
10
11
f1
e1
03
2c
25
29
07
ed
f0
07
f2
13
1a
0d
f0
06
22
08
a2
c1
e3
c7
13
e2
e1
f9
ed
2c
08
04
df
f6
ec
eb
d3
37
1a
19
f4
00
f6
fa
23
00
fd
08
1f
0d
2b
00
0f
1c
0c
24
f4
fe
ec
0a
06
f2
fd
1a
fd
b1
dc
f6
f3
13
e5
ec
ff
fb
f6
f5
f2
09
05
1e
cb
cd
e5
01
f6
f2
f1
1a
29
28
1a
1c
f5
1f
0a
c6
dd
16
27
2a
f5
d8
02
fb
0c
22
12
e2
f4
ef
ef
eb
ce
f9
23
3c
ff
ee
25
0c
00
ee
0d
ef
e8
ce
d0
f4
e1
e5
dc
0c
25
ee
ec
f2
0a
32
11
fe
04
26
12
1a
0b
f8
d6
08
24
15
31
12
11
09
30
33
0a
e4
16
f8
f1
d7
ed
fd
09
3d
2b
17
13
de
18
fb
2e
01
d4
11
09
02
10
d7
1b
17
f6
01
17
05
ed
27
10
b6
c5
f1
15
e8
c7
f1
06
0e
2d
fc
2d
fc
06
2a
2c
17
1c
ea
f1
03
ea
d9
08
f5
05
17
22
07
db
13
58
1c
11
10
f5
e7
f4
0f
f9
08
08
01
07
05
0f
01
d7
02
d1
b7
d3
ef
14
e3
f2
ec
05
1f
1c
ea
08
22
10
04
d5
e7
f1
18
19
1a
17
02
eb
fa
17
1b
f0
02
11
f5
26
00
e9
ff
dd
00
06
f9
f8
ea
1c
1c
08
e6
00
04
2a
05
0f
0f
f4
d9
e8
f1
22
30
f2
ee
0d
03
f9
01
15
f7
fc
db
d7
fb
e5
05
ed
ff
fb
fb
fc
09
e1
f4
eb
06
04
f0
f3
b8
db
fa
f3
ef
09
09
f2
f9
05
f4
f7
f5
fa
f9
e0
fa
04
0c
e5
fc
df
1b
16
12
2d
27
09
18
0b
09
21
08
f0
f8
02
f2
10
12
11
2b
ff
f0
e2
37
31
16
e1
f9
02
05
23
16
f6
2e
fe
ee
05
f1
e8
0a
f8
12
14
e3
e5
f3
0c
fb
dc
10
e2
d0
fb
f2
07
28
07
d6
f7
ed
02
f7
fa
f7
1f
ef
fb
f2
15
04
e1
ff
15
fd
c8
ed
32
4b
08
e9
f4
24
29
1b
f4
21
f3
fc
f8
14
f4
f0
f7
ef
f7
e7
1e
07
dc
06
f3
f5
25
24
52
10
ff
0a
ff
22
05
17
fa
fa
f2
f9
05
e3
03
0f
0a
2f
0c
0f
07
ef
f0
04
21
33
f7
19
2d
3c
43
18
ee
0e
1c
f4
f4
d2
03
f0
00
f9
09
f4
1c
ed
e9
eb
28
16
07
d4
d6
11
1a
0b
12
ed
f7
20
27
ef
e3
f7
1a
20
f9
de
db
19
0d
46
25
2a
e1
fb
1c
3c
0d
e2
d3
ef
fd
fb
ec
ef
01
07
1d
01
05
10
00
23
f5
a8
11
2d
29
10
fb
cc
f5
45
32
27
05
0b
ed
18
0f
20
ed
e3
30
1b
2d
cc
dd
04
16
02
06
f3
e4
cf
0e
fb
f1
f4
01
13
d0
fc
ec
0a
08
e5
ff
e5
07
09
24
2f
d6
e9
35
1c
14
eb
da
24
13
07
27
1f
ea
0e
fa
16
fc
02
f5
f5
ed
fa
14
09
0e
06
26
2e
d2
ec
db
df
e4
ed
fa
e2
16
f3
08
00
03
ff
f7
fe
fd
1c
0d
17
1b
19
fd
0e
22
0c
eb
e8
11
44
07
11
e8
17
f7
04
f7
13
e6
ee
0e
f5
06
14
e2
df
0f
00
1d
15
e7
fe
fa
02
28
29
d5
e7
dd
e4
0a
fc
e7
f7
f3
ff
23
d6
e9
e6
30
46
02
2b
19
ff
25
24
1a
18
2a
f9
fe
e8
db
f8
01
fd
f0
17
f5
1f
fb
10
f5
fd
e5
35
2c
0e
05
d4
04
1e
25
f8
11
fb
01
04
f1
f7
0d
ee
f4
16
1a
13
1d
19
05
f9
f9
08
03
ea
24
e2
e6
df
cf
d7
00
fc
03
06
e2
0f
18
10
e7
e3
ea
be
f7
27
2a
9d
bd
0b
e5
0d
fa
00
43
12
f4
0a
13
0c
18
ed
19
ff
01
17
00
10
25
10
ee
fc
11
08
21
14
df
1a
06
15
04
e9
e9
f1
0e
f7
cf
f5
f4
f8
e7
e5
e7
f8
fd
2b
00
0b
45
dd
f2
f1
25
4d
e4
d6
16
fd
14
06
f1
29
f9
26
38
2b
32
0a
10
07
ff
05
12
08
03
06
01
c7
e2
df
f6
ec
f1
ce
fe
0d
df
25
14
09
ed
dc
d5
04
04
f7
00
eb
cc
00
f3
0e
e6
e9
ec
e0
f5
f0
04
05
d6
06
13
fd
fa
1a
14
ea
e1
11
0d
fa
f8
0c
11
31
12
e8
1e
19
cb
fd
f2
18
0c
cf
07
10
0e
f7
14
13
fa
f6
03
11
3c
0d
f3
e9
cd
e7
3a
10
1a
24
e8
07
18
fe
ef
11
df
04
19
12
12
04
fd
06
f3
e3
0a
28
22
37
ff
04
4a
05
fa
2d
ec
0f
fa
d3
46
0f
ec
0c
20
17
f3
d4
cb
07
fb
ea
e4
ba
1d
f7
22
15
c4
3c
df
0d
02
f8
21
24
f8
e2
e2
12
15
f6
15
ec
d4
e4
0a
e1
04
00
fc
15
0d
cd
e3
eb
e9
f2
ed
26
25
db
e4
07
09
16
f4
e6
e1
e6
da
12
ba
e6
f6
ee
22
0f
24
1a
3f
e5
ff
01
13
ea
04
fc
fa
11
fc
e9
d7
d4
e4
f1
e0
c3
f2
07
f3
06
ee
0e
35
05
0b
02
27
0c
fd
da
d9
00
05
e5
f1
ea
1a
07
24
09
fb
dc
f2
d9
34
17
1d
15
e7
06
07
ef
1b
f8
d5
fd
06
0c
fa
11
fc
10
d9
04
28
f4
00
e6
0b
e3
e6
ee
e1
12
f4
0f
19
f3
12
fc
1c
14
f5
fd
09
38
fd
0d
e2
0f
1a
ec
e8
e3
c7
d9
0f
08
f1
02
fa
0c
2a
16
0e
03
29
34
e8
f8
ff
32
1a
13
05
fc
2e
0f
11
37
1a
ec
37
30
0c
f5
e1
10
11
ff
ef
d6
a0
d3
d2
b5
e1
f9
19
2b
e4
f6
f0
20
0e
15
e2
e9
0b
d0
d4
13
de
c4
1e
11
f1
12
13
15
19
33
1b
ff
21
f7
02
37
0e
05
fd
e7
53
21
11
3c
13
e0
f8
21
1b
f1
df
ed
d9
f3
40
0a
14
c9
fe
19
1a
16
cf
e6
21
11
15
dd
e3
e1
ec
0c
eb
f4
fc
f4
40
df
f4
ee
0e
17
03
db
f6
0a
18
24
13
de
01
28
26
e5
12
08
e8
0e
ee
e7
b9
cb
00
14
fd
fc
04
ed
f6
27
34
da
10
fd
0e
df
0c
11
d2
f3
09
f1
e8
f4
ea
ac
f9
f4
1b
18
23
f9
ea
e2
56
1d
0b
fe
ed
06
1a
12
1c
f6
13
0c
04
d2
d2
f5
eb
19
f7
df
f3
f2
1c
21
09
dd
c0
fc
f4
12
e4
c0
d1
d6
1b
fb
f0
dc
07
25
0a
fe
2c
14
16
01
fa
02
01
e8
12
fc
f8
eb
0d
14
02
f7
0c
fb
f6
10
e1
f0
0e
01
e3
04
f5
f6
fc
d0
e3
1f
ff
da
ac
16
fd
26
ea
17
05
e4
f7
03
0b
fe
ef
d9
de
1f
f0
1a
11
f3
fa
f0
f4
02
11
22
f0
f1
1c
07
eb
31
fd
d5
f7
11
f8
e2
d5
09
c7
ac
29
07
d7
e4
fd
0a
e6
d2
e1
f8
dd
fe
ff
ef
0a
23
f6
0e
1d
bd
1d
18
fe
17
0e
0a
ed
b9
eb
f8
04
0f
f4
f9
de
09
23
01
e3
fe
f9
ef
10
ea
dd
08
1a
25
02
9b
f7
e0
e5
18
04
1b
0e
fb
15
30
04
f9
c3
ed
22
de
2f
00
d4
e5
2e
0d
fc
ee
11
ec
ec
f4
ed
e4
0b
00
14
e8
e9
f2
19
d8
c3
f9
1c
f5
f7
ee
ea
fc
09
bc
fa
06
23
07
f9
fe
05
e3
ed
e4
eb
f8
19
eb
e3
e7
f7
f5
d7
de
da
d8
ed
cf
c9
b0
c4
f9
04
19
21
0f
1d
26
19
2b
1f
fa
2d
03
2a
04
e7
1b
02
fb
0b
34
2e
44
73
29
24
03
fd
f3
10
f8
04
06
fa
01
ed
03
12
06
f7
19
12
21
3f
2c
0a
0e
4b
32
2e
03
22
10
1a
0f
eb
ff
3f
39
f0
1d
25
16
0e
08
ff
dc
3f
15
f7
1c
3f
51
2d
2e
05
4a
2c
01
02
12
06
fe
f4
0d
f1
05
ee
00
28
fe
17
22
15
10
1e
19
11
d3
bf
cb
08
0c
0c
f6
08
10
fe
0a
f6
07
20
1e
30
ea
fa
12
14
2d
f3
22
3b
24
4f
31
ea
01
17
04
fe
06
0c
d6
de
0a
19
e9
08
e8
00
f3
fc
dc
bb
d6
fe
08
f8
e1
05
f4
19
20
f5
fd
24
13
14
f1
06
0c
1a
11
e7
06
d9
21
08
f5
f6
f6
ef
e9
ed
01
fa
e1
ea
fc
f8
f9
c4
01
fc
e3
f6
ef
31
02
ef
22
49
30
24
3c
ea
29
24
1c
f9
f6
1b
1c
00
e5
0c
fe
0d
16
15
fc
d0
f3
1c
08
01
fc
18
21
ed
01
d6
14
fb
05
0e
1f
f5
05
33
38
12
e1
f8
03
f9
d5
ea
e4
14
e2
09
ef
d0
06
10
e0
e5
dd
e9
18
0a
06
1e
01
1a
1b
11
f4
20
e3
09
2a
13
02
00
e1
f0
e5
c0
f2
e9
20
12
20
1a
0f
0a
f1
0b
fd
f9
f4
f7
fd
03
00
f0
00
00
11
09
08
27
23
d7
e4
dd
d9
cc
f5
fe
18
18
01
17
dd
ff
15
05
f9
f3
14
18
02
0f
fe
ea
fa
f8
ef
d9
fe
24
1f
f8
03
ee
03
04
f4
0d
fc
25
f4
de
20
2f
0a
f5
10
10
34
55
5b
03
48
58
0b
14
da
00
0c
08
f0
00
1b
05
02
01
06
38
07
02
17
f9
31
ff
c7
ec
40
4a
33
27
33
f5
07
0d
e6
f1
29
14
1d
f4
2e
ed
0d
19
d7
e8
f8
e5
e7
e1
06
25
f4
ed
fc
31
fa
fb
13
02
f4
fb
d5
c8
d3
dc
fa
ed
d7
0b
0b
19
25
f3
1c
1f
f3
de
05
ff
fe
c8
c2
01
2f
1e
20
22
19
1a
05
34
21
f6
11
2d
df
df
f2
06
f9
0d
0f
ff
0e
e2
15
03
fb
2a
04
1d
fc
c1
da
09
f4
fb
fa
0d
2b
f6
fe
2f
07
1b
13
f3
17
1a
0a
07
19
16
fe
f9
19
fb
01
ee
f0
04
ee
f0
ec
fb
e3
ee
ee
e9
cd
ee
fe
06
de
e9
fa
f8
05
f0
e5
01
ea
f5
ee
f8
05
ea
cf
fb
03
1a
19
e7
13
1b
fa
0f
e9
f3
ec
06
00
07
d7
e9
bb
c6
cd
17
f3
f6
f9
0b
d6
e3
09
00
e3
11
03
f6
03
03
ef
ad
17
35
31
1b
f3
f4
f4
f6
1e
e7
f1
fb
ed
0c
04
0f
fc
f5
14
e7
e0
e8
2d
fe
de
d2
e7
05
05
0f
14
29
f9
de
ee
1f
f1
d8
f2
fd
d4
eb
d2
00
c9
d4
0c
09
e8
e0
2c
04
23
e5
e1
fc
0c
0e
ef
de
17
ec
05
12
ff
20
da
f8
2d
27
06
0a
03
1a
f7
e3
22
1c
1a
44
05
ed
2f
3b
0e
18
2b
16
f1
22
11
01
fa
f5
01
f8
eb
fa
e8
2e
33
0c
eb
fb
11
ee
f5
b4
c6
fe
19
18
f4
c5
d2
cb
eb
1e
fd
26
0e
e0
0e
16
f8
10
e0
bd
17
0f
28
39
5a
1d
ec
e7
06
fd
f9
0e
d3
dc
04
f2
0a
2b
10
f5
26
03
0b
f2
ed
d6
e8
09
0b
d8
13
ff
19
2d
fa
e5
eb
f9
f0
f7
f6
17
fc
ee
fd
2a
04
e5
f8
f9
16
1c
3e
0e
e3
f2
15
fc
fc
ed
03
1e
ef
f8
13
fb
e0
ed
16
f4
f1
0a
1b
f6
fb
0a
d8
e8
cc
ce
e3
fa
c4
f7
e8
2e
13
fb
fc
20
25
f0
e9
f9
1c
00
e8
ea
e9
e9
04
2e
dd
df
07
1a
01
28
09
ed
04
de
0f
f1
db
e2
d0
04
ed
da
c8
e4
00
11
26
10
f0
09
1b
f1
ff
ef
d0
10
16
01
01
f9
f6
06
23
1b
f1
38
1d
36
15
35
01
1c
09
e5
ee
10
36
04
f5
04
f0
0f
03
26
53
54
28
20
fe
11
03
03
14
2a
0f
41
4d
18
ee
de
f5
23
fb
dd
0b
20
1c
1d
0a
f4
ef
1d
00
ff
f1
07
09
ff
fa
47
0f
2e
0a
05
24
f3
ea
00
f1
f8
ea
07
f3
f8
18
f7
02
0c
1c
ef
27
2c
21
1b
f2
21
18
21
ea
1d
26
f7
db
e6
0c
29
19
12
0a
df
e6
0c
3a
1a
00
32
2a
32
2e
ea
fe
06
1f
ff
21
0b
e9
d9
f7
2a
1b
f7
fa
13
e4
0b
f4
f4
21
09
23
ff
29
20
12
0e
18
11
0c
25
20
f7
eb
f4
1b
1a
fb
da
fc
d1
f1
da
f8
0d
04
1e
ed
01
40
0d
f9
f0
cf
03
f4
f2
16
29
1e
cd
fc
25
2f
08
fa
0f
2c
13
02
de
f1
1d
22
00
15
14
1d
10
ea
15
01
ff
11
db
2b
ff
dc
07
f6
ec
e1
fd
2b
39
13
ee
f5
27
4b
20
ec
06
09
32
01
1e
fb
0e
28
04
f1
f0
f3
d4
2d
02
0a
d0
ce
15
e0
f0
f8
d3
01
05
14
07
1b
15
22
2a
d1
c0
12
f8
fd
d3
c7
e5
fc
06
0c
ec
04
f6
1b
0e
47
06
33
04
d1
cb
e1
09
24
38
12
fb
08
e5
e3
f3
eb
fd
22
01
ff
02
f0
e0
ef
1e
e8
24
fa
1d
e0
12
07
07
f4
e1
0c
04
fe
00
ec
07
f5
15
f8
ec
e7
02
db
dd
03
37
0d
f8
0a
d0
fb
00
23
04
e8
da
f6
ee
0e
11
f9
f7
2c
27
00
fb
0a
1a
12
fb
fb
21
17
fb
dc
f6
03
db
d7
f2
d8
23
f5
1d
38
b0
10
1f
f9
23
1d
2d
19
13
12
02
0c
e0
eb
e5
e6
e7
f5
fa
f5
dc
e2
e1
f0
f3
0c
fe
1b
08
ff
13
06
09
31
34
f5
fa
02
f8
d6
fc
ea
f5
0e
21
15
0f
23
18
06
f5
f6
fe
08
2d
ef
e0
e1
ec
00
20
39
2a
33
1e
34
28
3a
fd
f3
4d
32
2b
03
32
eb
f8
c6
e5
f3
01
f5
f6
f5
dc
f2
01
02
02
00
09
fc
f0
23
26
fb
eb
f4
1d
f8
f9
e9
f4
30
2d
ef
c5
ef
d9
f0
f6
e9
dd
fc
ff
e7
c3
ef
15
06
fb
e4
ef
16
f8
16
e9
1c
18
f9
d3
dc
e1
00
ee
17
0e
f8
08
fd
2d
13
15
23
15
14
19
0b
05
14
fb
30
08
f1
1b
f5
ef
d4
ea
c6
fc
09
fa
d3
cb
30
1c
0e
21
ef
27
09
0f
0a
00
20
51
1a
f1
23
f6
f9
f1
08
c8
f6
ec
e3
f7
01
09
e7
e4
d0
fe
22
25
f2
1e
06
03
0a
24
12
16
ee
0c
d8
f9
ed
1f
04
36
24
0a
ec
e4
e4
12
f9
eb
f2
f1
cd
f4
dc
ba
a2
ba
c7
05
e2
e1
fd
ef
09
de
e4
e6
12
fe
11
da
0d
fc
0b
f9
07
00
1f
3c
3c
1c
1b
01
fd
25
07
0c
ee
e8
1d
09
fb
eb
09
ee
f7
16
08
08
13
dc
11
03
09
27
02
fd
05
0d
1b
28
ee
26
fe
f3
d4
d6
e6
e7
fd
eb
2b
0f
13
f6
0e
30
00
1a
0c
19
fe
34
13
f2
07
d2
d9
fd
12
13
03
0f
e0
f6
0c
ee
c1
e3
2b
15
0b
03
0e
f9
ed
05
fd
20
2c
2e
08
e1
10
1e
15
00
0e
06
0d
16
18
06
24
2c
4f
e4
21
04
1f
f5
c0
ee
23
1c
f8
f6
ee
0e
25
11
1c
32
f7
ff
13
07
2d
e8
fc
0c
0e
22
dc
b7
b9
ee
f5
f0
e1
f3
05
f9
04
05
f4
23
25
04
1a
16
11
13
ce
d7
db
f9
09
f3
e4
cf
ed
e4
f6
ee
d1
cd
ec
18
0e
22
1f
15
f8
0e
f3
14
15
f6
fd
d2
23
ee
e9
09
11
dd
e1
0c
0f
0f
1d
fb
01
14
0c
0d
fd
ee
ff
09
1a
14
27
0e
44
28
f8
f0
ef
f2
45
2e
00
02
04
c9
0c
f9
03
f9
dc
c7
f2
08
38
d7
b4
ff
02
28
f8
22
19
1d
15
19
fa
03
f6
f9
0e
0f
e2
e5
25
fe
f9
e2
f2
10
0e
f7
10
0f
cc
50
ed
00
e8
1f
00
26
f6
f4
b7
cd
01
fa
28
e2
ef
05
d5
05
c1
eb
21
01
2e
1c
1b
18
1a
14
40
26
e5
01
05
38
46
0a
f2
16
1f
0a
fb
f1
e4
09
02
0a
09
1c
19
fe
f4
0e
d4
fd
20
21
13
00
0b
02
0c
02
13
15
10
24
07
f8
e7
da
fd
01
d9
4b
e8
fb
23
06
0a
11
0f
27
10
e8
f2
0e
18
0b
04
eb
f4
eb
f6
2c
b6
03
e4
e0
34
dd
12
09
10
31
37
20
0e
0a
f4
04
16
e3
f1
01
d7
da
0c
03
4d
11
14
fd
03
09
f4
55
ea
e2
07
f3
13
eb
fe
ef
ee
e6
16
fd
06
0d
f2
f8
ef
eb
23
1f
eb
24
04
bd
2d
08
32
0e
11
b3
fe
0e
1b
15
23
0a
ff
f8
07
e9
e4
fe
d9
0d
f4
ed
08
e2
0e
e1
03
0c
19
02
f1
e6
f3
01
f9
0b
08
1e
1a
0a
1d
0a
e0
de
27
c9
ea
16
f9
18
fd
09
39
e3
07
f5
15
ea
01
ef
e6
ed
f0
03
fb
e8
06
ff
e1
13
e7
fc
dc
f5
dc
f8
fa
10
0b
f2
f0
fa
d9
d1
f7
dc
0c
05
f4
16
e0
19
e8
f1
22
fb
0f
ee
3b
16
02
06
01
0f
f9
05
f3
fb
e4
e9
01
e7
d6
fc
d4
e3
e1
ff
38
29
0b
0d
48
d0
34
3d
f8
fe
fe
29
23
d2
eb
fa
ca
f0
ef
d2
e6
e2
ec
14
e2
25
ef
03
0a
f2
29
06
21
00
cc
e6
e0
ec
00
f2
f6
14
f3
11
15
05
0a
03
07
fb
f6
da
d2
e5
be
f6
11
dd
cf
eb
fb
30
10
fb
09
00
13
fc
09
e7
18
f1
f2
ea
14
08
2c
fa
c8
1c
14
17
3b
f5
e8
d8
0c
ec
05
ec
f2
ff
d8
19
02
06
ff
11
3a
23
1e
1c
3b
4f
39
ea
f4
0e
fd
f8
fc
fb
f5
ec
fe
13
0a
f5
04
07
28
13
e2
d5
f2
28
2f
22
e1
02
f1
40
2b
03
06
e7
07
10
29
05
ef
f0
fc
26
1e
1a
10
0f
15
38
0b
12
08
d2
e3
38
20
f9
b8
ca
e4
e7
ce
df
f6
f7
e6
04
d6
ff
2c
f5
f9
04
dd
f9
29
15
d8
fb
eb
11
1c
3a
1e
06
ef
da
19
fa
fc
f8
f0
fe
08
f7
f0
e6
1e
f9
fe
f8
ba
23
29
10
1a
ee
1c
f2
f3
c9
eb
f6
04
f4
e6
e8
0f
01
0c
00
ff
13
ff
08
f6
08
02
23
ee
09
0a
31
e0
24
fe
02
e7
e9
f5
f6
02
0e
05
ed
f2
11
05
d7
02
06
27
f0
07
ee
ad
df
ce
04
06
e9
e3
f9
30
10
24
20
01
05
1c
01
09
2e
e8
10
e8
c8
0f
03
11
2a
f6
03
e9
0e
0f
f8
00
02
16
13
f1
16
0c
d3
e4
fa
30
20
fb
e2
fd
fe
2b
f7
0f
16
fe
b9
da
fa
fb
c9
cf
ff
ee
ef
e6
fe
fc
f1
fa
05
ff
fa
0d
d0
d4
04
10
30
0b
dd
ef
ff
b9
fc
eb
f1
f3
ce
ee
f0
f5
fd
0f
11
d7
e3
07
ff
30
e4
18
d1
e5
f8
eb
f1
16
37
15
08
1d
0d
06
f2
02
1a
0f
0f
0f
02
fc
0a
29
e6
29
18
ea
ef
ec
f2
02
e1
d6
f3
03
0c
eb
21
ec
0b
00
0b
23
15
e8
f6
14
4f
30
ef
d7
c6
ec
fa
cd
fd
f5
df
fb
fa
2b
f2
fc
f4
e2
07
fb
06
f8
dc
e4
e6
ec
f8
c9
32
04
06
fe
2f
20
f1
ea
04
17
0d
fb
0f
05
10
ed
0b
2d
1a
07
03
1b
3f
36
28
4f
f4
3f
17
ec
03
20
09
fa
f7
2b
16
e9
f2
eb
0f
0f
26
10
13
e6
e1
d8
13
e7
cd
0d
ce
bf
14
17
f2
d5
dd
16
fb
f8
15
0f
01
f0
08
da
da
f6
f6
e3
f4
d9
18
fe
09
0b
d5
26
f4
ce
f6
28
12
f2
df
f0
16
dc
02
e8
1e
05
1c
f2
fb
06
d1
f3
f6
fc
eb
f8
03
fe
f5
fc
db
ff
f0
f9
f4
0a
f7
07
0b
fc
06
fc
ef
02
09
d2
2e
13
d4
c9
0b
0d
0c
b8
fb
2e
f1
df
1a
3f
46
d7
df
fa
f4
fa
df
09
ef
d8
df
06
02
fa
dd
e2
fa
ff
12
da
1b
1d
f0
ef
13
34
02
0a
1c
2e
0a
e4
08
ef
f3
0b
de
e8
03
e9
fa
ee
1d
2d
0a
35
04
15
ff
36
34
0b
fe
f9
13
07
e6
eb
0c
18
03
07
f5
04
eb
e8
e7
f8
ec
e6
13
2b
f2
ef
35
35
03
09
04
e7
e8
fe
f3
f7
e3
f5
04
e1
f4
fd
08
13
d3
e1
23
1c
d5
ef
f2
12
d9
11
08
fa
ed
ec
f0
fb
d9
08
fa
01
f7
10
ab
e6
e6
fa
c7
d3
36
10
0f
e0
fe
03
02
1f
f9
25
f1
3a
e6
0b
46
fd
ff
f2
01
02
ed
0d
06
07
20
f0
f9
26
0d
1c
03
06
ee
12
1b
25
e7
f9
f3
0e
f9
fd
d7
cb
ff
c5
e7
20
fc
17
05
1c
0f
fc
21
2d
15
07
fe
f4
f1
04
f7
0d
26
f1
11
ef
16
1a
26
e6
f4
fa
ed
0c
f5
25
0d
e3
1a
11
eb
1b
fd
f3
ed
fc
f8
fa
e7
08
f6
27
2a
dc
1a
1c
50
22
f0
f4
1d
02
bd
01
06
0a
f4
e8
ef
1d
e0
f5
f9
df
14
db
fc
ea
fc
14
e7
e7
10
fc
e1
da
0d
fa
fb
ca
0f
0d
dd
f7
21
fe
00
e6
df
f3
ba
f8
ce
10
08
00
f9
2d
36
e7
e6
d5
06
10
2d
1c
16
0d
03
f1
08
0b
02
07
d1
bb
cd
11
1d
10
f6
04
00
00
14
2e
16
ed
ec
f6
e7
ff
12
f3
1e
d4
d0
e0
16
21
2a
32
d1
d3
1a
f1
34
ff
e9
08
ec
0b
1f
34
05
01
e7
f0
06
1b
27
0e
24
e1
e2
fc
02
ef
fc
cd
e5
f3
10
36
08
18
f3
e0
20
14
15
e5
0e
1d
09
ed
d1
ee
02
fe
2b
f7
e7
f4
42
1e
0c
1f
0b
25
0c
f4
11
26
fa
0c
25
03
fa
0a
ef
23
19
ef
c5
e3
db
e4
f1
e8
ef
1d
fb
ef
1c
14
07
f7
b1
fc
e7
f9
05
17
fd
0c
d2
cf
1a
21
1b
fa
04
fb
15
11
32
09
f7
0f
ec
fe
19
20
01
02
1e
f9
04
c8
f5
ec
f9
1a
27
0d
2b
03
0a
de
cb
ea
e5
cb
ea
f0
f3
0c
0a
04
f4
e8
fc
fa
01
df
fc
23
e1
22
e6
dd
d2
f8
05
f2
2f
05
f5
f0
fc
fe
29
e0
04
00
fa
22
fd
0e
12
fd
0a
fa
e3
0b
1e
05
08
06
20
e0
02
1d
1f
16
ee
e1
bd
f9
fb
0e
ff
03
0a
09
10
29
15
fa
bb
bb
07
11
ea
fc
0f
c4
bb
f1
10
04
00
cf
01
ff
06
17
f3
02
1a
fa
14
f3
dd
21
18
16
16
bd
d5
f3
0a
09
12
fd
fa
fe
fa
fb
0a
e9
e5
1a
e3
e8
d4
db
31
1f
1d
07
00
04
11
13
e2
fb
df
17
2e
07
f7
01
2e
15
0d
eb
06
18
07
20
14
10
10
f4
d7
18
0c
0a
03
d1
e8
39
1a
0c
01
d3
e6
06
f0
df
e0
fd
07
2f
ed
cf
1b
09
04
c0
18
fd
0a
c2
b0
f7
f1
03
03
f8
f7
34
f1
01
ec
fe
12
1f
fd
f8
0c
fa
f9
23
22
17
ec
20
15
0e
1b
3e
46
25
fe
fe
34
10
fc
f2
0e
07
0d
d4
06
11
e0
39
00
31
24
dd
18
0f
ed
eb
fd
08
c3
fd
f8
ff
f7
07
17
26
0b
00
0b
2c
3b
30
ea
c5
e2
fc
f2
04
fd
06
0e
c5
17
0d
18
03
ec
05
24
10
20
29
1f
38
09
ea
e2
fb
03
0e
28
fa
1c
04
f0
36
42
f2
f5
01
0a
01
df
e6
d6
d4
d0
e0
f1
10
0a
e5
c2
e3
e1
fb
37
e7
f1
e8
f5
11
e6
fa
01
1e
03
28
1e
e0
26
2b
1b
18
e9
ea
f8
2f
fc
fb
f9
2c
58
12
0d
13
26
16
30
0e
f5
23
e2
e2
f4
f0
ef
0b
1d
05
cc
fa
e4
f6
38
17
f0
eb
e1
02
21
e4
13
fb
0c
ee
bf
05
fd
e4
0c
39
13
0c
06
01
dc
f3
ce
cc
f8
f3
24
16
ea
05
27
14
04
ee
de
19
01
f0
ff
1c
27
fc
ed
0d
20
18
c7
e7
02
ed
cc
f7
c5
d9
f0
e8
f0
fb
e7
e9
e1
1b
0f
18
f7
ec
26
07
24
dd
e5
12
1c
31
2b
00
1a
f2
13
37
11
1a
db
fd
1d
0c
f6
0a
17
e7
cc
00
ee
cc
bf
cc
28
01
f5
ca
2f
29
2a
03
ea
fc
e4
03
20
1d
ef
1e
f9
04
03
07
1f
15
02
e9
3a
fe
2e
f4
12
d0
ec
06
38
17
d6
0c
fd
08
17
18
f4
11
25
16
1d
0c
f3
dc
09
08
f4
08
16
14
03
fc
d5
f5
1b
04
ee
d4
00
ff
e4
fa
01
f2
2a
57
07
fe
f2
0d
27
ed
0d
0c
02
f4
0c
13
f0
ef
fd
15
ee
ec
ee
ff
12
ea
e6
17
f4
fd
c7
00
09
06
32
ef
e3
ec
f9
21
0c
fc
fb
de
fe
08
09
e7
01
f8
05
d1
f5
fb
ee
f5
0d
34
10
f9
fa
e8
fd
ee
de
f1
e5
ca
dd
e8
fa
e8
d2
1d
05
00
f6
ec
fe
f7
fa
ee
ee
08
14
0b
e9
29
52
3e
4e
12
21
2c
17
1c
09
e9
f7
0f
f3
11
e6
05
01
f6
f4
fd
ef
21
01
19
03
05
18
fc
e2
e8
fd
12
f8
12
14
1c
0c
f2
ff
d3
d8
f4
f7
e0
c0
d5
0c
2b
f2
f6
06
0f
fc
00
1d
03
dd
28
18
00
f6
11
24
26
1b
e0
1e
05
05
03
14
04
12
2e
fe
09
de
f1
2d
e1
e0
3e
17
f0
04
04
f1
e6
fe
1f
4a
b5
d0
03
26
29
0a
fe
24
07
e4
38
23
fb
fc
de
10
02
da
fd
15
e6
09
13
0f
13
22
04
29
ec
0f
3e
2a
04
fd
13
e9
e8
11
02
ed
16
ff
de
de
f8
0c
04
40
42
0a
df
ca
0a
20
aa
17
2c
f0
f0
e9
12
27
26
21
32
f5
da
11
41
1a
dc
f7
04
0c
fd
ed
17
08
fc
1a
10
0d
2a
0f
03
bb
f2
12
f3
ea
1c
2c
fd
f6
14
d3
00
0e
f6
e6
0f
f1
d0
fc
f8
d9
dc
02
1c
25
ca
03
26
30
f5
fb
1b
f8
1d
1e
f4
29
0d
1c
06
e7
f6
14
11
f3
d3
09
07
ce
00
ec
1f
09
fc
21
29
e6
07
2e
09
e9
de
c9
12
3b
0b
f8
2b
07
f0
07
0d
12
0e
cd
30
00
dc
d6
fe
e3
d5
ed
1b
29
08
37
1e
fe
13
d8
e6
03
25
ea
fd
fd
f3
06
2b
ff
20
02
11
3d
0d
0f
f7
cf
0c
12
1e
d3
ee
14
22
f3
df
e4
fa
04
cf
ef
eb
ed
24
18
0f
fc
0c
0a
e3
35
16
f1
0f
2b
04
e1
d5
0c
f4
13
df
ea
17
d0
06
18
33
ec
0d
05
44
11
13
21
f1
ea
fb
05
da
d0
b7
ff
0f
e6
f2
0a
12
ec
f0
0f
12
12
ff
10
0d
eb
e7
de
0a
f8
ea
23
0c
d9
f2
e6
e5
fd
d7
d8
a3
f5
fc
ec
1c
11
18
1e
28
23
f1
e2
15
2d
25
ce
e9
f3
f1
f4
1b
24
0b
e4
3a
fe
05
2a
28
32
07
c9
14
f0
f4
07
08
f5
f6
0f
08
21
b9
ee
04
e7
fe
27
18
0b
f7
ea
f8
15
f4
f9
04
ed
0a
d5
f3
ea
1e
14
fb
de
05
e7
0d
ef
cf
f6
e0
dd
dc
c7
d5
e7
c6
0f
ce
c5
fa
ed
f3
fb
13
16
e0
eb
1b
0f
17
1a
24
10
d8
f7
fe
f4
20
f9
08
10
0d
28
14
f8
fa
f6
67
44
e0
0f
06
d9
d5
27
fd
0c
18
1b
01
36
30
11
09
15
f0
fa
f7
1e
d1
01
0e
f8
c0
f4
01
07
fd
ec
23
2d
3e
e0
e9
ed
f9
3b
39
17
fc
14
23
20
f8
fa
07
fb
fe
26
10
f3
09
16
ed
4c
05
e1
e0
f9
25
09
f5
f8
cc
f0
f3
f0
08
ff
f0
df
0b
0a
0e
fe
14
f2
c7
e9
0e
2e
47
27
e6
e4
00
11
17
08
eb
fb
15
2b
33
ef
12
08
29
38
f7
fd
00
f0
c8
ec
ef
10
09
d5
fb
11
de
e1
00
13
29
03
fc
00
17
f8
f7
24
02
06
05
0a
d1
d7
1d
05
0b
f8
0b
1f
33
ea
cc
d6
2b
27
f4
14
ff
00
0b
eb
15
01
05
f7
0d
c6
f3
16
fb
0a
05
f3
e1
f1
1f
2d
21
fd
0f
fe
14
1a
df
1e
f3
ce
b8
06
f5
fb
03
22
03
1b
0f
18
0f
2a
06
10
19
ea
06
0c
05
25
33
14
e5
10
57
f6
fc
09
f9
0d
0b
13
e9
d6
d6
2c
fe
22
f2
de
ff
13
18
f5
f8
e5
1c
0f
fe
f1
13
ee
e3
ed
fd
2e
15
1a
05
eb
da
11
21
2a
d7
0c
fe
1a
19
05
00
14
fa
3c
f7
27
f2
e9
12
ee
c0
f9
05
09
03
1f
f3
11
35
05
fc
f7
1d
fd
ed
e4
18
2d
06
06
d2
0f
fc
0b
20
18
ee
e8
ed
0c
f3
fa
15
ee
fa
0b
08
16
02
e2
1f
e4
d1
e1
10
f9
f5
06
0c
3b
eb
17
0a
06
18
19
ea
02
01
28
22
ef
03
f9
0a
19
d0
20
18
c4
d5
f8
fd
0d
0d
00
33
2f
12
1d
ec
00
01
08
fb
26
d9
21
04
27
16
fa
0f
f9
0d
d0
f5
28
ed
0e
dc
f3
14
0f
0a
00
21
e5
cf
e4
d6
22
fe
0b
d9
cf
fc
f3
f4
d5
e9
ed
e4
08
0e
1c
05
f7
fe
09
e2
e8
16
21
dc
cd
b2
e9
f8
08
25
04
e8
d7
14
0d
15
28
0f
fc
04
06
f5
00
e7
fa
f2
d6
2d
02
39
15
e8
e6
15
18
3e
2a
35
3a
d7
e4
d6
17
f9
de
fc
e5
f0
f5
05
05
01
2c
2a
cc
09
14
f9
1b
2b
e3
1a
37
f1
0a
e8
0b
e1
da
e7
e8
20
2b
2c
07
06
28
e8
fb
01
f1
15
28
0c
dc
02
ee
3f
fd
dd
fa
16
4a
53
4a
de
ed
fd
e8
e6
f9
fa
00
0e
fd
dc
f9
05
10
2e
fa
ee
f6
18
16
1f
0e
15
29
f2
17
24
02
fe
00
f1
c1
ec
e8
df
d2
08
e7
05
04
09
fa
cd
11
06
0e
13
f5
21
ef
09
f7
2a
00
05
00
04
f2
f4
22
d4
26
14
1d
04
f8
fd
ef
06
07
1d
f7
04
0e
18
f9
ee
f8
f0
12
1e
fe
19
16
39
1c
db
06
e5
00
16
2d
32
15
c5
da
22
20
08
18
0a
07
25
27
d4
0d
d2
fb
e7
d3
ff
30
1e
0d
d0
ed
f0
16
34
36
f9
d9
09
53
5d
1f
fa
f5
00
00
f5
0b
00
fe
e5
02
f4
e0
ee
ea
12
f3
0f
da
ef
ed
cb
1f
e2
f6
09
0e
04
f4
fc
f6
05
06
f1
9e
ea
fb
0c
f5
ff
db
f6
16
dd
45
05
05
2d
2d
26
0f
f8
f0
ea
e9
fe
fb
fe
01
24
29
00
ef
d5
35
e0
13
1b
15
02
e9
ee
04
f7
f0
03
0d
f4
2e
f2
0b
d6
e4
2b
df
f6
f1
14
e1
d7
05
30
01
d1
1a
e3
0a
b2
e7
dd
e1
e4
f0
ec
f1
ea
10
0a
31
26
1c
f4
f1
e3
15
03
fb
20
e8
00
e6
1a
fa
b3
bd
f9
e2
22
cb
d6
12
28
f0
e1
f5
f9
32
e2
f2
1e
fb
0d
1b
16
11
10
17
1e
1f
e5
15
23
0b
15
2c
f4
10
31
fc
e7
c7
ee
07
28
18
f4
1f
f9
0c
0f
09
36
2b
13
1b
e5
18
0b
1a
ec
f3
1f
3a
02
14
24
fa
03
f9
e8
16
ff
f1
ea
d4
ee
f8
f3
03
dc
08
eb
e9
b4
dc
37
01
d5
f3
21
ed
f8
ea
e8
f6
b7
ca
fa
29
23
d0
f0
e4
e9
fb
11
05
16
eb
ec
f3
e4
2f
37
ee
d9
fe
f3
f0
df
0b
3b
01
f2
fa
17
1b
e7
fe
fc
fc
fc
ee
04
0e
09
0c
0e
32
21
f3
ea
30
19
fa
db
ee
f8
0a
e9
1d
19
f4
f5
f7
e7
ee
1a
ff
0c
09
04
e3
fd
06
15
11
f3
f8
de
2d
19
0d
eb
e5
05
f2
0a
f4
0f
09
fb
0e
12
1f
f9
2d
fc
f5
e6
16
14
f7
fc
00
17
a7
c8
09
1d
09
ec
0c
0e
06
fe
00
e5
fd
f2
dc
f4
08
2b
02
28
f9
0c
12
fc
06
ea
1c
0d
d7
df
e9
e7
08
04
15
17
e4
f9
f1
f7
be
d6
f5
33
e7
f6
08
ce
0c
e7
29
3c
ff
fa
1f
2e
0d
0a
e0
e6
fa
0e
15
f4
e9
0b
e5
03
f1
0a
fd
f6
f9
c4
fe
e3
f3
d8
b1
db
dc
0a
ea
e1
1e
e8
bf
f7
d6
f9
22
03
fd
dd
df
14
27
09
08
cd
a1
fa
ee
d9
e2
02
fb
f0
de
f3
03
38
19
e4
ef
17
27
30
e3
0b
17
f1
1d
f3
ed
02
e1
db
f4
17
1f
16
e0
05
e8
e9
19
fb
df
f0
ee
e5
e7
02
e5
05
f4
fa
f6
0d
12
df
30
2a
21
36
fc
e2
03
f7
fb
14
1c
08
11
0d
1a
fa
e3
f3
10
bc
e5
05
f1
d5
d0
ef
fd
f2
f3
f7
f8
12
e6
fd
ff
f0
0b
00
ee
ef
2f
14
d2
c8
fb
10
03
fc
40
25
0e
0a
1f
3f
d7
f6
de
e6
f5
01
eb
03
01
f0
f5
e8
f4
36
f6
ef
dc
f5
5f
ff
ee
1e
01
f7
e1
df
11
ec
e2
14
13
19
2b
1b
ef
f7
43
32
df
bc
03
07
d7
f6
e9
f4
d8
df
17
0c
07
09
12
ec
0e
02
0e
15
15
2d
13
f5
f7
f6
ec
f4
f2
fa
0b
ef
df
34
2c
cb
fb
0e
e4
d9
ef
e1
f5
eb
bf
1d
11
1a
cf
c1
08
0b
ec
05
30
cf
f8
0a
13
09
f9
fb
17
0c
f3
09
e6
f6
0d
00
fd
fe
06
f2
e5
eb
f3
e7
1e
e4
f9
33
32
ea
ff
f1
29
25
e8
f7
07
dc
d6
fa
e4
e7
20
d2
d3
63
00
e0
0d
2b
3c
0b
ec
f0
00
ef
16
f8
fc
ff
e3
db
07
ed
ff
13
0b
f5
08
07
f5
f6
f7
ee
df
de
1f
f5
f0
05
1c
e3
07
0b
e8
fe
fa
11
02
02
10
15
e9
15
2b
20
0b
3a
e8
c0
dd
19
0a
c0
d6
fa
00
ec
d0
cd
ed
e1
ea
0a
eb
e0
0a
de
fd
d3
22
f9
1f
33
15
1f
34
fa
cc
1e
0f
0a
0a
d5
ef
ea
01
20
f9
ea
ce
f4
df
e8
ad
f5
0b
eb
b9
f6
2f
ee
e8
26
29
11
f8
06
2b
15
02
f9
d5
f6
10
dd
fe
05
fa
e8
3f
0e
41
0f
d4
ea
29
f2
f7
f4
e2
02
f1
f3
12
1f
16
ec
09
f1
e7
04
11
05
0a
2f
ee
13
f9
3f
09
07
d2
10
f1
d9
03
c3
f1
e2
f3
f7
e0
e4
29
29
f7
dd
1b
58
07
f5
30
f6
eb
e0
fe
e7
fe
ba
0b
10
e2
14
ed
ea
0b
10
fd
0e
fc
eb
ef
13
00
e3
f4
00
e6
f7
0c
f9
f6
2c
02
e6
2d
f8
fb
f3
e8
ea
15
fd
24
08
01
fc
52
60
fa
df
07
2a
fb
f5
f4
e6
e9
e1
ff
e2
fd
d7
fc
f9
01
db
ee
dc
ea
df
2a
f2
e6
e8
f6
db
b9
11
3b
de
1d
42
14
24
f5
16
11
e2
d7
02
e9
07
04
05
08
e4
02
dd
fb
0b
2e
c1
e6
20
0e
f3
f1
0d
ff
fa
fa
09
33
fd
f5
0c
fc
18
15
c9
fb
f8
0d
f9
38
47
ef
ed
1e
0c
fb
f6
c6
e3
f4
e6
db
d6
f1
fd
ed
eb
05
1a
4e
15
02
10
0c
ee
e9
f7
f0
ff
ed
06
1e
11
14
09
05
14
23
2e
03
01
fb
05
f1
ca
fa
e9
d2
bf
a0
fc
3c
11
e3
31
20
ed
0c
0f
2b
fe
e8
16
24
1c
1a
0a
12
1f
2e
25
ec
e7
01
0d
16
0a
dd
e8
f6
e2
2c
20
00
df
15
28
eb
17
b6
fd
01
17
ed
0b
dd
f3
f1
fa
17
1d
12
ea
05
30
10
08
12
38
02
e6
fd
22
0e
0e
00
f0
08
fc
2f
1e
f4
f6
f6
05
e0
ed
f0
e2
c6
f8
0f
ff
07
1c
1f
fe
22
18
ef
f8
f5
0e
0f
0d
fc
ff
f1
0f
ea
a4
e8
10
15
e1
3e
25
f2
d3
18
1a
fd
00
11
f4
06
19
09
0d
1c
e3
1b
09
fe
15
07
17
f7
e8
e9
29
08
03
23
12
12
e8
02
0a
eb
f4
04
f1
f4
f5
f0
ec
f5
d0
db
11
36
26
00
4b
e0
ee
22
36
d7
c1
ec
12
fa
0b
12
eb
15
09
eb
fb
24
1a
0c
1a
ee
fa
ea
37
f7
19
07
07
15
07
11
fe
f6
00
d0
f1
1c
17
fc
f9
e8
ff
23
21
fc
db
f9
fe
f4
2f
2e
ec
e8
12
02
16
01
04
26
01
0e
f3
0c
26
16
24
fd
e7
31
1f
f5
ec
e5
f4
f7
0b
ff
43
fb
15
e6
f9
05
0d
40
23
09
f1
f4
fc
f7
fc
07
d9
23
0d
32
28
08
0d
fe
fd
e0
19
d9
e8
f8
f7
ff
0e
15
f1
d6
eb
f3
0b
e2
eb
02
ec
05
1c
1b
12
fd
27
21
fc
07
fb
1c
20
03
fe
18
03
fb
e9
f1
19
e2
e9
e8
c8
00
46
23
0c
e5
35
d5
07
28
43
d7
d5
20
fe
18
11
ee
0c
f9
27
38
09
23
07
07
02
b1
fb
0c
02
ce
e9
f9
0f
16
14
1e
19
ef
16
09
1a
ef
0c
00
e5
23
fc
1b
08
00
d9
09
4f
09
19
0a
0a
13
0b
ef
23
2e
1a
25
ef
fe
21
05
01
3b
fa
22
31
18
1b
3e
41
e3
ed
00
eb
f6
11
ec
2a
e4
f6
d4
ee
18
08
e9
fb
0a
f9
1b
0d
20
fc
c3
d3
be
cf
c8
e4
de
f6
ef
f5
e5
ec
f2
f4
e7
0f
10
26
26
ff
fd
f0
16
10
f2
fe
fb
e5
1a
d7
31
09
00
e8
f4
3b
24
d6
f5
c3
1a
26
e3
e7
fc
10
12
0c
0a
27
e0
1f
cc
d6
11
dc
ec
f4
01
14
19
ed
f0
fb
12
e1
ee
fc
02
e6
1f
fa
f1
e9
f6
04
07
05
f4
f8
03
0f
15
ee
f9
1a
01
e7
db
0a
d8
11
0d
e9
06
0a
0e
0a
e8
21
07
22
15
d7
f6
cf
9f
e9
fe
00
f3
f1
f4
f0
30
f9
fa
fb
f7
f7
22
f6
02
ef
f8
14
1b
13
ee
06
ee
d7
2f
f4
fa
d6
e2
f6
fc
19
fc
01
f9
e6
f5
eb
dc
f6
d1
0b
d1
d7
da
f3
02
24
32
16
0d
2f
05
34
16
22
07
f9
07
e8
fe
f5
fe
01
fd
f0
e8
23
12
ea
f4
0a
ce
fd
15
d6
ea
f2
fc
ca
fc
16
3c
24
22
30
2f
4a
f2
f1
20
fc
d9
ee
02
38
f2
c3
96
00
10
e6
df
e7
00
22
ff
fd
fb
0f
0a
ee
0d
13
ef
28
f7
25
1b
f9
08
e4
11
10
e0
18
0a
27
11
f2
f2
ed
0d
f6
ed
13
fe
f9
07
14
1a
cd
f7
cc
b0
0e
ee
5d
23
04
03
d5
ff
1b
24
01
ef
f4
03
fe
27
07
09
fe
23
11
fe
fe
b8
c9
06
fe
f5
db
e1
f0
02
04
fe
0f
fe
ee
07
e5
0c
f7
f0
dd
1d
09
38
eb
c5
f2
c6
15
e8
57
30
fe
ff
fe
47
2a
ef
15
d6
e7
0c
15
ea
fe
09
d4
05
e4
fd
37
21
0b
db
08
32
f2
de
eb
12
20
d2
fc
07
fd
0c
ed
f5
e4
e2
f8
fb
08
f4
16
ee
f4
f8
0c
00
09
12
02
09
ff
15
e0
00
1d
0a
e3
14
f5
d6
0d
e3
fc
10
11
eb
44
f2
f1
ef
f3
ec
fd
01
fe
01
f1
d8
ee
0a
1a
e8
07
fe
36
36
41
24
11
28
29
15
14
06
f5
fd
e8
ee
d6
f5
16
19
01
f8
df
fd
02
f6
e9
08
0b
01
07
c3
ea
23
16
d9
d9
f4
ef
00
ee
d2
fb
1d
15
08
ff
06
18
d7
f7
ef
f9
f8
df
b9
25
eb
0a
f7
b1
fa
e4
12
0b
ef
f1
04
f6
f5
d1
b8
cd
d9
fc
e3
f7
fb
12
fc
dc
07
f6
08
2d
ff
ff
ee
e7
1c
11
e5
f7
ed
d2
dc
e8
f5
f0
0e
f8
02
f5
de
0c
42
4c
15
ee
f5
22
f5
05
f4
0d
1c
05
d6
fd
e7
03
07
ff
dc
fe
09
fb
f9
f6
10
ee
ff
12
07
1f
fd
05
0e
0d
05
14
0a
f4
15
f4
ef
f1
14
fd
02
1b
17
21
0b
f0
de
be
ca
f9
d9
07
c0
f0
08
f3
e2
c8
de
fa
10
f8
df
d2
c8
f4
0f
e1
e1
36
0b
18
f8
fa
12
e2
ff
13
da
e3
20
19
17
d5
be
ee
05
15
fe
ed
ec
46
05
0e
f0
e1
04
fc
f2
4c
08
ee
f9
0a
4e
0f
20
01
1a
25
09
3e
fa
fa
15
ef
0b
ed
da
0d
00
03
0d
04
56
f2
19
08
fa
13
46
0d
f8
0b
22
09
ed
ec
00
ef
0c
f7
f5
20
2f
f8
ed
01
fc
1e
00
0e
26
30
05
f8
06
19
07
fd
27
07
1b
e9
e9
17
fe
ff
05
07
fe
23
1c
f2
1f
f4
37
f7
03
f9
f8
02
aa
e9
f1
2d
18
15
0e
f2
04
33
18
18
27
08
d7
d0
f1
06
f9
e2
e0
10
f5
f5
d8
dc
f9
11
13
07
da
10
03
fe
04
14
23
31
e4
0e
29
06
e4
25
07
c8
d9
e1
ea
ca
d6
10
ff
e0
e5
15
e6
e0
29
df
ef
cd
ed
04
ef
de
d9
11
fb
e7
e5
10
23
e4
fa
03
09
ec
05
10
e8
f8
fb
07
1c
16
1b
fc
ee
15
f0
19
11
07
27
27
ee
d1
30
1b
26
10
e9
02
f5
eb
02
23
f6
10
04
06
21
e8
0d
02
44
ef
ef
f2
ee
d7
eb
05
02
da
f2
1b
e0
fc
0a
f9
01
0f
25
11
13
16
ed
e4
14
f8
10
0b
0d
dd
00
cc
10
fd
14
f5
e9
0a
13
04
26
df
2f
1c
13
f3
ea
fb
e7
47
05
fd
ec
f4
e5
e8
0a
13
01
1d
20
0f
23
0b
ee
dd
df
05
24
43
46
40
ff
13
f5
00
fa
16
1f
24
10
f1
10
30
24
2e
fb
07
f2
10
03
1c
17
13
45
15
11
12
0e
f6
1b
08
ea
03
25
19
f7
0e
1a
37
11
e9
16
0c
0b
f6
3e
fc
05
f0
0b
e9
06
16
09
28
ee
f6
f7
ce
e5
dc
e0
ea
ec
f1
f5
00
ed
f4
f0
ff
fd
09
ee
18
0d
13
ff
3f
fb
f0
13
33
32
50
2e
1e
2e
16
12
2b
15
16
fa
e5
e4
06
01
08
e8
14
fd
ea
21
49
1f
cd
d6
fe
ec
f2
db
f3
23
e1
c1
03
f8
03
04
f3
28
08
db
d9
ed
f3
ea
f9
d6
05
cc
cd
e2
f2
10
f0
e8
1a
eb
09
d3
05
14
0b
d8
14
11
1d
ec
1e
f2
03
16
f8
0e
dd
f2
f4
19
0d
0d
30
ea
0f
dd
12
15
00
f8
f1
d6
f9
e3
dc
23
0a
1a
28
08
0f
01
20
e7
1f
1c
04
25
fe
e2
01
f6
0a
10
ff
dc
e1
d4
d7
f8
21
f1
fd
f7
d2
1e
e6
f9
f3
14
0f
06
e1
d7
0a
f7
02
f0
08
fe
05
f6
11
f4
06
2a
dc
fc
0d
fb
d6
fc
1d
09
0c
e5
1a
f5
d4
fe
fd
fa
07
fc
14
f3
dd
2d
26
40
0d
0f
17
2f
11
da
1e
2f
1b
fb
f3
28
2a
e3
e9
12
ef
da
08
01
1f
0f
13
30
2a
f7
1d
02
09
21
ed
f3
d4
09
fb
cd
e8
d9
c7
ee
07
ea
f5
ff
18
f8
02
d5
05
10
23
e7
d7
ea
f8
09
05
0c
f5
2d
37
2a
16
18
29
30
15
1f
0c
1c
db
02
ef
db
c9
b3
31
37
02
af
c5
fc
0a
10
0a
1d
f6
23
16
f7
ed
ea
eb
0d
03
06
eb
e1
ec
12
f1
ed
f6
0c
13
0e
d7
f1
0b
37
21
35
2c
1c
23
1c
1e
09
2e
33
0e
0e
0c
f0
f4
fb
ff
08
f6
2b
60
e3
0d
0e
24
1a
ce
e1
ff
eb
e9
17
15
04
05
f9
0a
ee
fb
df
f4
cf
e4
f3
fd
0b
03
e9
ef
16
12
19
0a
10
04
1c
03
26
06
ec
de
49
1f
0b
ed
26
cc
e0
06
1a
1d
17
ed
f5
f5
f0
f8
ee
f7
e9
fd
0e
f7
e3
eb
bf
10
28
07
00
18
eb
df
e8
e3
2f
0a
1d
f2
2d
38
04
03
f3
12
01
0d
00
fd
ed
fb
ff
00
ed
cd
df
fa
26
43
09
0b
02
0a
29
0d
06
e6
28
16
f8
dd
f0
04
07
fe
09
0f
02
1b
0f
07
13
00
cb
1b
12
06
fc
cf
24
28
f6
d5
07
0c
08
13
09
1b
fb
06
06
23
0e
00
d8
01
33
17
01
b6
fc
29
12
03
f3
df
e8
d4
f0
f6
02
b8
d1
e9
1f
13
00
07
2c
14
e9
f1
ed
10
fc
e9
fa
f3
03
dd
f6
d1
0f
f3
fb
29
ee
25
01
ec
e0
00
f5
12
e4
07
26
26
ed
cc
e5
ec
e4
c4
0d
fb
fc
09
02
cc
fa
eb
ff
e6
f4
15
10
10
0b
f8
0e
04
0d
1c
f2
13
03
17
01
e8
fb
db
0c
f9
15
e4
e6
f9
f3
ee
dd
dc
c9
fc
e5
09
22
fa
fc
ed
ff
14
1a
07
32
ea
38
1d
29
f0
fe
16
fc
fa
08
0f
dc
df
ea
04
de
e7
fc
fd
2a
04
10
3b
26
20
0f
19
39
ec
f8
12
03
eb
17
f6
0e
26
10
f0
f3
ef
e0
f7
e9
f5
eb
13
07
03
15
27
21
da
10
1a
21
1a
04
ed
fe
ec
03
00
05
ee
f4
18
20
29
d7
31
19
e1
e6
f7
01
02
e7
d2
d6
fb
f3
10
26
f8
06
1f
08
ea
08
2a
02
ea
30
2e
11
f1
00
19
f4
e6
fb
06
18
10
f9
f5
13
02
03
f3
e8
f7
ef
e8
eb
e2
e5
fb
fc
d5
02
e8
ce
fd
f3
26
bb
f1
ff
03
e8
fa
1e
0f
fb
f6
12
0f
12
f4
e7
0b
2a
12
d3
c0
16
12
f9
01
0c
f5
e8
02
f1
ef
f5
d3
d5
ef
f2
f7
04
ef
ff
ef
eb
16
f0
3c
17
e3
fd
d6
0e
f2
fa
f2
bf
e4
e9
f9
0b
1a
09
e6
e3
1c
f2
06
17
36
08
dd
28
30
ea
fd
f4
f4
c7
fc
ed
03
01
ed
1f
10
e8
f2
f3
f5
09
f1
f4
df
fb
18
14
26
fe
e1
1a
06
00
e9
01
f8
fa
e3
fc
fd
ef
e2
0c
09
e5
00
23
04
cf
ed
01
0e
c6
d9
e4
0d
e2
d9
34
29
f2
01
2d
1a
14
01
16
ff
fc
0e
fe
27
04
ea
05
db
09
f4
df
f2
17
d0
03
dc
fa
eb
e7
dc
10
e8
e3
bb
17
f3
04
d0
e9
dc
23
1e
d6
13
e7
ed
0e
c8
1c
f0
1a
23
e1
0c
1e
1f
0a
dc
df
04
f9
2a
f2
f3
f4
1c
4c
f4
0f
0e
0b
e4
e1
11
1d
db
e9
d6
fe
e9
0a
0a
ea
01
1e
1c
11
13
10
e8
11
ef
d0
10
eb
2f
13
20
10
17
05
fe
1a
16
19
17
05
f0
10
f6
2e
47
2d
09
06
4f
0f
f5
ed
02
30
d9
f5
07
08
f1
e6
06
f3
25
11
e3
08
ec
03
0e
f4
18
10
f4
17
fa
07
1c
e3
c1
03
cd
e0
cc
11
f4
e6
fe
1f
01
e2
10
24
e7
ed
09
21
1a
d3
f6
fd
e8
ed
02
fe
cf
07
ef
e0
cd
f8
0c
ec
df
f3
00
20
20
05
ec
d9
d4
eb
f1
0a
f8
dc
e0
e2
36
1d
df
d6
05
00
1f
11
11
fb
f1
e9
01
fb
f9
19
2a
dc
e6
e2
f0
18
0f
fe
0c
dd
08
fc
e7
f6
00
f2
ec
e3
13
06
da
03
22
fa
f1
11
3e
59
1d
df
11
0d
29
51
22
fa
18
13
32
1c
f6
17
c9
27
09
f5
0e
06
1c
31
3a
0c
f2
09
e7
10
10
d0
1b
14
fe
fd
f7
d7
f7
ff
ed
05
06
fd
fe
fa
1e
05
0e
fe
2a
1a
f6
0e
f4
16
f4
fd
ea
df
df
c3
09
fb
ee
0c
10
02
f7
f2
3f
56
fe
09
ff
e2
cf
0d
ea
0f
03
1a
1b
0b
11
ef
2c
f0
e2
10
0e
f2
13
24
13
f8
fc
ea
10
10
d6
fd
f8
e9
fe
fa
0d
01
0c
e7
fe
0d
11
00
f7
3e
f1
f1
ff
fc
24
ff
05
28
12
2c
06
ee
0b
0f
12
0e
02
e0
f2
f7
f4
07
e5
dd
f7
f7
f6
14
fd
05
3b
f9
dd
d1
22
3e
1a
e9
eb
e8
f0
f3
fd
f2
17
de
d8
07
36
fb
cb
fb
f9
f1
02
10
26
15
0b
f3
13
11
12
fb
0b
ec
f7
e3
17
fa
1d
25
ed
15
1e
39
0c
f7
fe
27
28
fc
e8
e0
30
1c
fa
e1
ff
11
e6
03
f0
e6
e8
e5
05
32
23
d1
e5
05
09
2d
03
e8
12
2e
09
c8
c2
10
20
ff
f3
d9
17
03
ca
d5
10
f3
f9
0d
02
2f
03
00
2c
11
1c
26
f4
ea
f1
16
3e
11
fb
ff
0e
ee
25
2a
18
36
f0
f6
0c
01
f1
e5
f6
22
1a
11
0d
f7
16
09
c9
00
01
f4
e1
d1
0f
28
01
eb
11
20
25
3e
02
14
f9
20
23
0b
f0
0b
00
06
24
06
05
e8
0e
07
df
19
f9
fe
f3
dc
d3
dc
03
c5
eb
f1
03
0f
e6
01
ed
0f
ed
fa
0d
14
0e
d4
07
27
f2
13
e3
10
28
c6
fe
18
fc
06
01
25
f3
0d
0f
04
fb
fe
f9
fd
01
f2
08
ff
eb
05
e9
f0
fd
ef
3b
0a
13
07
0d
fd
2d
20
10
05
ed
0a
ed
f9
f8
f4
fc
e8
24
3d
4a
29
02
f8
2d
ca
e3
3d
f9
f0
e8
b5
e4
e8
e7
00
15
ec
08
f6
26
2b
05
e0
c6
cc
f9
f8
fc
df
cc
cd
d3
f9
1a
fe
20
e8
01
04
f2
ea
d2
d8
df
d6
fa
07
d9
fb
e1
06
08
05
d4
fc
f7
c9
0b
bb
13
fc
d3
da
b8
1c
e6
ab
c9
f0
fb
de
e3
20
04
ec
e0
d1
16
2e
0d
17
26
22
2b
05
eb
ea
cb
c4
05
0b
1c
07
fc
ee
1d
08
1b
20
27
ed
db
f9
13
ec
05
2d
f8
12
f9
da
f6
e3
03
20
ff
0b
f3
f2
1f
3b
fb
ff
22
54
fc
00
01
0f
df
f4
1f
e3
29
0a
fa
0a
c8
1e
12
fe
de
e1
02
08
12
e7
d4
fc
20
09
d9
e4
15
f0
27
17
0a
0b
d4
e6
ff
de
d6
08
f8
17
fa
07
f6
05
1d
12
fe
f9
02
17
13
23
19
0e
ec
f3
32
27
07
e2
ed
1a
02
f6
fa
f7
06
f3
ed
dc
36
07
11
cc
ce
0a
40
10
05
1a
09
eb
d6
02
17
c7
b7
d5
f2
df
f6
dd
0d
0c
00
f5
02
0d
fa
eb
28
e6
db
fc
f0
31
dc
2a
01
eb
0b
0f
ef
df
d2
e3
15
fc
f0
fc
f8
08
1e
18
fc
25
e0
f1
0b
eb
2d
cc
d9
f7
e1
e4
dc
e0
0a
34
fb
13
d8
e2
1f
f7
e5
da
f7
00
0b
cf
2e
fb
c8
e6
ce
15
26
1f
d4
e0
f3
f6
0c
00
f2
f4
f5
33
ec
16
fe
f6
25
12
19
fe
cc
ce
04
df
06
18
07
f7
f7
e9
01
e7
08
16
fa
f6
e7
16
ec
b4
1f
12
31
e7
0c
14
d0
1e
f4
1f
ef
ef
01
f0
0b
fe
f8
fc
ff
e2
e0
0e
fc
13
fe
fc
07
0d
00
06
04
e0
cf
e1
03
de
e1
c5
ef
f4
0f
1c
04
f3
2c
05
f5
19
22
fb
e1
1b
0c
44
23
1c
19
55
2e
eb
17
2b
07
03
fe
f0
e4
eb
ee
cc
dd
16
09
ed
21
12
1e
fa
f3
03
dd
fc
e8
a3
09
ff
c9
ef
19
fb
19
07
0f
ef
13
05
ff
0d
fd
11
0d
cb
06
e2
e2
e8
e6
d4
20
16
f9
fe
fd
04
eb
f0
ec
0d
f9
d8
ed
f6
e4
04
ec
ea
10
2a
ef
ff
de
c7
fd
17
1b
08
0b
15
14
fe
16
ff
e7
1c
ec
f6
e6
00
39
d6
e5
ea
f2
ff
c4
e1
dd
d9
0b
05
d9
d1
f4
f0
f3
d9
cd
d7
e9
f7
ec
05
ec
0d
f2
14
0e
f2
d1
fa
e5
04
d7
ac
fb
0a
f9
e4
09
10
12
e2
d9
18
0d
fe
20
18
ed
02
1c
03
05
ed
f4
f0
1a
ea
e3
cf
e3
f8
f2
02
08
17
08
0f
07
00
00
e4
0e
0c
0f
05
e0
e2
f0
e5
f1
3e
ef
e5
d9
d7
de
0d
0c
0b
0a
18
f2
e5
ec
f9
10
e9
ec
d7
d0
d9
cc
ef
ef
e0
da
fd
08
2e
2d
01
2c
0b
f3
f5
df
08
25
ff
ef
c7
c7
01
ea
e2
e6
c6
b3
e7
0b
0a
cc
e7
d8
e4
d1
c7
ed
09
3a
3c
3c
f2
09
25
20
39
26
f8
22
02
05
38
0d
e7
0e
ed
25
28
0a
f6
04
fa
01
e3
06
2c
07
ea
ba
d2
08
26
01
04
e0
20
26
0c
ec
e6
d9
17
fb
13
f5
c8
fb
e1
ce
0f
ff
f3
fc
09
1f
03
14
df
e6
b3
fd
04
19
d6
d9
f6
e9
f2
19
46
22
03
2a
13
23
1d
f5
25
02
4a
fb
fe
18
f1
ef
03
e9
0e
fa
14
0e
04
1b
0f
15
eb
f2
fe
fb
04
03
f1
f6
f0
1c
fd
09
f0
db
e9
08
eb
0e
ed
be
db
22
31
15
f0
71
45
c2
ce
02
f5
0e
c1
fd
f3
f4
fa
f7
0c
f1
de
e8
08
e1
f4
e7
ec
06
0a
e6
15
27
00
06
f9
f6
f0
18
fa
ff
00
0e
d8
99
c8
c5
00
10
07
fb
18
29
16
15
09
2e
2f
07
fe
15
15
0f
ec
fc
e3
04
e2
15
19
0d
30
18
f6
ff
3a
31
fe
e8
de
ee
f9
ff
0b
0b
fc
f3
e9
2d
43
1f
0b
f0
0f
3a
11
15
28
bb
cf
ee
ec
e6
01
fb
fa
e8
de
ec
e9
f6
0d
1c
e2
00
f2
05
23
04
f1
f6
51
15
f6
e7
19
0f
2d
f8
f0
13
23
ed
f9
12
e4
0a
f1
f6
e8
ff
e7
19
13
fe
22
1b
0e
0a
00
2f
fc
01
03
e3
d7
e9
b3
12
1c
01
06
17
0f
f7
fc
01
ed
f5
1a
fb
15
02
05
2d
2a
04
d6
d4
e4
ef
db
d5
05
0d
fe
ff
0f
07
12
e9
e6
e0
f8
0b
13
ee
e8
0a
3d
0e
dc
cf
0b
13
03
c6
e1
fe
e0
ec
e2
f5
0b
f4
ed
ca
f7
1c
22
fa
0c
e6
13
45
2c
22
0a
e2
f7
e0
c7
d1
03
22
13
f2
e9
f0
fc
04
30
0e
f4
30
0c
09
1e
ee
d9
a7
ba
eb
0c
fd
e6
c9
ea
ec
f8
f2
0e
25
1d
06
08
fe
4c
ee
ed
09
fd
fc
41
33
31
02
ae
12
17
26
d2
d4
0f
17
13
06
f7
e3
f9
eb
f6
28
22
1d
e9
fa
1e
1c
fb
da
03
37
02
04
ce
f9
37
e6
1d
08
0c
30
f4
eb
f6
f5
1e
17
02
1a
11
28
30
ff
f3
26
19
2a
ed
eb
cf
e7
dc
eb
ed
fa
11
00
06
21
00
fd
d9
fa
e1
f9
ef
e9
e9
d7
1c
12
1e
12
26
09
ec
f9
f6
f2
06
1e
f3
f7
22
2d
04
06
11
10
14
22
e2
e2
b5
e4
eb
fb
f1
fb
0e
0b
fa
10
13
f3
0d
e4
0d
09
2c
24
fe
07
13
50
48
de
c7
cf
01
17
0d
ee
c3
fc
1a
06
e7
f9
14
28
e3
f1
07
15
01
f5
0e
15
2c
ec
1b
fa
ed
d5
b7
f4
fd
d5
d5
e2
23
ed
db
f8
0e
ce
ef
07
06
06
15
31
30
11
ef
e0
fd
07
00
f4
19
09
cd
f4
0b
fa
f3
f7
fe
04
27
fd
0b
dd
f5
e1
e5
fc
01
16
0b
00
f2
e2
ff
ef
02
f0
1c
11
fd
f8
38
58
36
e5
df
05
09
21
12
08
f6
fb
e2
2c
11
e9
f3
d5
10
15
f2
0d
fe
f6
25
24
07
f6
2f
17
1c
0e
e0
f9
16
38
ff
0d
d4
de
0b
eb
f2
da
c0
ce
0e
f4
de
11
44
03
ea
16
07
eb
e2
95
20
0a
f8
e9
f3
12
08
ec
f3
1e
f5
04
0e
13
21
07
0c
24
f2
eb
06
1f
24
03
f6
de
14
29
00
40
e8
ed
df
08
1d
11
fb
08
1a
12
de
e3
df
f2
15
f4
e6
fa
cf
ee
fc
05
ce
17
0d
26
1e
fa
22
07
1f
0f
26
0a
36
f2
00
10
1b
f8
05
0b
f3
27
d7
0b
ff
f4
f0
fe
0e
09
08
e1
1c
23
fe
0a
21
1e
f3
e5
fa
39
2b
10
15
e6
e9
fb
f0
e1
e7
f3
e8
fc
df
00
10
ff
d1
f4
ee
eb
11
00
21
0c
01
cb
fa
ff
10
15
bd
1f
f0
06
24
0e
24
24
f2
0b
50
05
ff
fc
06
fa
d6
ba
cb
2f
23
07
f3
d6
1d
ce
0b
df
f6
1b
c9
22
14
13
0c
ec
cb
14
08
02
04
0c
07
dd
f4
e1
16
38
dc
e0
be
fe
27
0f
e6
c1
e9
1c
20
22
eb
d2
00
01
15
26
2c
4f
f6
06
09
ff
02
f0
29
01
18
20
2e
14
f8
e9
09
f9
03
0d
fb
f9
0f
1f
fb
ea
ed
e0
e2
da
e9
01
e4
da
08
f6
11
ff
14
13
0f
37
20
f7
14
15
ff
23
f7
f1
09
05
10
1c
ff
23
16
d8
09
e8
00
02
11
f5
e2
d4
d9
d4
08
db
e1
e6
06
14
ee
14
1f
24
c5
c8
28
0d
f0
cc
ee
eb
f6
e6
ea
25
03
dc
ec
0f
0e
f8
fa
0d
03
fb
09
dd
f6
f5
f7
f5
e2
1b
0b
1c
ec
dc
f9
12
07
fd
1c
23
f8
09
e7
e4
ec
19
25
0c
fb
08
21
28
10
01
f9
cf
f7
19
08
15
01
c9
ed
d4
13
22
0b
0d
e0
ee
fb
f1
01
28
fc
04
15
2e
29
0c
03
f5
d1
dd
f5
07
1b
04
f3
c5
fb
1f
08
20
04
ec
ce
10
e7
db
18
20
fd
13
d2
f3
1d
eb
ed
ee
14
ea
3f
eb
dc
06
2f
17
26
3c
fc
fd
1a
16
0f
f3
c7
0e
08
01
f6
f5
de
eb
04
f5
f7
ed
f7
12
03
e6
1d
cb
a7
ca
aa
0e
06
22
1e
31
07
07
0d
d9
f6
06
1f
e8
ef
f8
09
10
13
0e
35
fc
ff
00
ff
e0
f0
f8
2e
23
f0
08
19
0e
13
ec
16
04
fe
e6
eb
f7
df
f8
d5
de
f9
04
0c
03
e0
f3
ee
ee
f3
f4
1a
0c
00
e3
0a
11
20
08
e5
0d
09
ed
ff
37
fc
0f
e8
da
07
e1
0b
36
16
e6
da
0f
db
cd
dd
e0
01
11
d6
06
3c
10
f4
d0
f7
f4
0e
0e
c8
d5
d0
00
ea
fe
e3
1d
19
04
05
31
45
fc
18
ee
0e
04
0a
0b
2c
1f
ab
ef
18
09
04
ca
ec
37
19
14
00
04
f4
f9
1c
28
f1
f8
f4
26
1c
ea
f1
01
fc
10
03
20
ec
d8
0e
ed
f6
0e
28
2d
de
12
2f
1d
15
14
2c
fe
ff
e6
0f
0b
d6
f4
0b
22
1f
19
e4
ed
df
fb
eb
de
0d
e8
eb
30
22
0a
05
ee
f8
fb
1e
33
48
ef
f4
0a
17
16
08
ee
c8
00
e8
02
e4
22
0e
03
1e
15
13
03
09
dd
fa
20
ed
e3
af
e2
0c
ee
27
4c
11
1e
24
20
fa
03
13
fb
00
e4
e6
f4
de
e1
f9
36
08
1b
19
dd
12
08
12
fc
ef
de
e1
eb
0f
f9
36
39
ed
04
fc
08
e5
32
fc
fb
1c
e8
30
f3
ef
fc
ea
1a
e3
0c
fd
cb
fe
37
f4
fa
1b
18
d8
f1
f4
e6
1b
d8
cf
d7
09
fe
ef
e8
14
13
05
e9
ec
ef
00
0f
08
04
19
07
d5
1b
0d
2b
dd
ed
ea
fe
ff
21
06
15
f0
fb
02
1f
0d
e8
02
08
e4
32
ff
c5
c3
15
ff
f7
0c
27
36
26
43
17
ff
18
0b
ff
05
0c
fb
e1
07
1f
f8
04
ce
0e
02
0d
d5
d2
da
22
fd
dd
e8
e8
1a
16
f7
03
14
17
14
14
2d
4d
04
01
e7
eb
03
f4
0e
d7
00
fb
28
4e
cb
f5
12
2b
11
ff
ee
f5
0a
e9
00
0b
e9
02
ed
e5
d2
00
31
0c
fb
f5
05
1f
f3
c9
ea
dd
0b
fb
fa
0d
03
01
ea
f6
1c
ec
dd
01
05
ff
0a
52
1b
1f
2d
2a
e9
d0
18
10
f3
e2
dd
fe
17
fd
bd
ff
10
f7
ed
ce
f8
07
06
09
ff
1a
f4
01
2b
07
2e
f7
1f
e7
0d
14
ff
15
07
f4
f7
fa
15
da
c2
ee
12
04
eb
cd
ca
f7
cf
d7
eb
1c
e9
13
07
e5
fc
e3
fc
09
fa
fd
e4
08
1c
11
09
ef
ef
18
38
25
05
f6
f1
0c
3e
ea
f8
dc
fd
e4
1d
0b
07
f5
d4
fc
fe
f5
09
f1
1b
1c
14
d1
e4
fc
4e
ef
eb
3d
fa
15
f3
00
26
12
fb
08
ea
08
0b
dc
f5
f4
fe
f9
0b
28
34
2c
f4
04
4c
27
0b
f9
e1
04
20
1c
0c
da
e5
dd
01
1a
e4
fd
ea
d0
fa
01
07
ee
e0
ff
d6
cc
cb
08
ee
1b
25
d7
f0
ff
06
1a
2c
0b
df
f1
04
fa
02
26
20
25
42
22
2d
1b
42
1a
e6
15
0e
10
ee
e3
18
14
f7
eb
e9
10
f5
f3
0c
de
f4
0c
0d
f9
10
e3
f8
ed
07
31
e3
ee
f0
18
1f
e6
ee
f1
fa
10
04
02
15
09
f9
ef
c7
fb
17
24
da
0a
fe
e1
d5
cb
1c
dc
05
06
d4
12
05
df
07
10
0b
13
11
06
f2
ff
f7
f9
e5
02
f1
0f
26
0e
f1
06
d1
f7
09
0f
ff
f3
e9
f1
e1
ce
fc
fd
fa
f8
e4
ea
07
f1
b7
d4
b5
e1
e8
05
f8
e8
f0
f6
e3
e4
06
ee
f3
04
1c
0a
2c
43
fb
0f
14
18
1e
19
3e
2a
1c
04
27
04
2a
1c
f0
46
27
12
0e
1c
06
f5
fa
ee
ec
fd
ce
f6
0c
2c
db
da
bf
c6
dd
ee
c9
0a
d4
da
e5
dd
e8
00
1a
df
f6
11
06
0e
0a
23
11
f9
d6
f9
c7
e0
01
ff
06
b1
e4
d0
01
fb
f8
f5
e8
02
f4
fd
f8
23
ed
19
0b
e9
09
20
e4
fd
dc
e0
19
1d
2a
fc
00
fe
ff
06
0f
18
fa
0e
0e
05
2e
29
1b
3b
12
1b
01
fb
08
00
1d
0b
15
18
04
1d
0b
02
16
26
d8
ff
0f
1b
2d
23
1c
0a
30
0a
18
0f
12
ec
b9
00
0f
eb
ee
d0
cb
19
f4
fe
de
e5
02
0a
16
02
1e
0f
ef
ff
e4
01
1c
14
2b
27
01
ed
f3
fa
30
12
02
0c
0d
e9
16
21
f5
f6
e9
db
e9
05
fa
16
ec
f0
f1
d4
f5
26
0b
df
00
ea
03
07
fa
f5
e9
f6
22
fd
09
00
16
fc
2a
13
57
42
2c
fd
0c
31
22
ff
0b
0d
f7
dc
0b
ef
37
03
c8
01
fd
19
e6
09
f6
f5
05
fa
0b
07
f2
d6
fe
d3
1d
0c
fc
ef
fe
ea
ef
05
f8
0a
ee
14
29
0b
1b
2e
d6
ee
09
f4
25
0e
44
20
2b
07
03
18
f9
19
15
05
1b
07
f1
0f
db
ef
dc
de
b1
fa
23
f4
07
e6
ec
22
21
eb
0a
05
31
0b
23
0e
1a
23
0e
1c
13
18
f1
10
ee
04
01
fd
00
0d
1b
fe
24
16
de
d0
fb
05
f1
00
ed
ec
ea
e3
0b
09
f9
fd
eb
18
fe
06
00
09
0b
13
fc
fb
fb
f6
e5
0e
0a
f1
2a
15
ce
ea
10
e6
22
f8
0a
3b
09
1c
24
10
02
f6
f5
f0
f5
07
0b
e4
05
f2
03
09
0f
d7
ed
0c
09
12
1c
11
f1
f6
0c
fc
b5
d2
08
e5
dd
db
d7
0b
14
e8
f1
ed
f0
04
38
22
ed
ef
ea
d7
e0
00
09
13
f0
0c
05
21
26
1d
1c
1b
f7
21
52
1a
da
ee
f1
d3
08
ec
f5
00
f6
f3
05
f4
03
06
c6
dc
e4
01
1c
ec
ce
ef
1a
d8
fb
f0
e9
f6
04
0d
07
f4
0c
e9
d4
e4
1b
18
e7
e4
35
00
fd
f3
e5
c3
22
f9
f2
cd
f5
03
ec
f0
f1
dd
e5
fd
d0
fa
f6
df
ea
10
eb
d0
d8
ed
fd
17
0a
00
11
15
0e
ef
f4
0d
24
10
eb
fd
eb
dc
e8
f3
0f
05
05
f1
d4
21
f4
f8
e8
15
09
f3
07
27
fd
33
21
0c
1b
24
10
0e
08
07
00
1a
d4
f8
e6
fd
0c
00
ed
cd
bb
10
13
1a
f1
b7
00
09
08
fb
f0
09
e7
f2
00
03
f8
f6
11
04
1c
eb
15
1a
05
13
00
01
da
f6
f2
f0
e1
bb
d8
f7
0c
f9
05
f7
f5
0e
fa
f5
e3
1d
f3
f2
e8
d1
e9
f4
d4
f6
da
f1
45
0b
0d
df
e2
20
11
eb
08
e7
ea
ee
dd
0a
37
03
06
f5
04
25
2c
ea
ed
19
06
e6
e8
0b
08
0c
f1
f8
f4
0d
05
ce
f4
0b
ff
f8
01
f9
f0
07
ee
e8
f9
04
17
26
ed
e9
06
11
2f
09
ff
04
e9
fc
0f
19
3a
34
0a
fd
12
0f
2f
37
0c
f7
e5
02
d4
00
05
dc
cc
e9
fa
13
1d
1f
f0
0a
23
0d
04
e0
dd
e4
15
1c
ef
f5
ec
24
39
0b
de
11
0a
14
0f
0a
17
27
0a
e5
f9
1d
0f
11
e7
07
1f
23
34
02
fb
22
f0
c3
f2
cf
cb
c9
c6
e7
dc
d1
05
f7
eb
16
23
12
fa
fb
fd
29
d3
f0
ff
23
fe
cf
f8
e9
17
0e
e4
fe
1b
2f
03
cd
f5
f3
15
11
f1
d8
fd
f1
2e
0a
17
f8
28
30
11
fb
e7
e0
f6
f0
04
f8
c9
e5
0c
f7
02
fd
fa
10
28
10
2d
12
1e
0e
fa
ff
ff
e6
f3
28
2e
ee
1f
f8
23
32
09
13
23
09
33
3d
e8
fb
f0
f8
dd
b1
e4
e9
f5
b3
c1
d1
f2
e8
0f
00
db
e5
01
0c
fc
1a
04
13
f7
02
1d
0e
13
18
29
02
f3
f5
fc
28
1e
ff
17
06
1a
15
24
23
0b
03
2f
e3
09
10
fd
17
0a
de
de
15
0e
f6
d5
e2
08
3d
30
f7
16
ec
17
46
17
fc
1b
0c
33
3e
05
27
09
16
33
fe
d1
0b
01
0b
d6
dc
dc
1b
15
11
2b
05
1a
23
22
08
f2
fc
2c
1f
19
f5
1b
14
fd
e2
d5
e6
f4
04
d3
c7
2e
e3
fb
11
0c
0f
1c
f6
01
d4
e7
fd
25
1d
00
1d
fa
fe
ff
07
14
c7
d5
df
01
58
ec
ed
e0
05
1a
1e
0f
04
06
22
2c
fd
f8
fd
15
ec
eb
05
1f
fa
fb
f9
36
1f
13
07
24
11
f2
01
0d
05
f8
05
08
e5
e4
1c
0c
f8
03
cb
09
16
0c
05
fe
f8
17
0f
f6
f8
e0
fd
15
0a
12
02
df
18
30
32
04
fe
02
f7
4e
f0
e3
e2
f5
26
f4
f5
eb
e5
ff
e7
fe
e6
f0
fc
f2
fe
f2
f7
fd
00
11
fd
1b
29
12
cd
dd
03
01
f8
16
fa
fd
fc
fd
3e
fc
2a
fa
ee
ea
ff
19
2b
e5
06
fd
f8
fa
22
0b
08
04
f9
3e
f1
ce
df
0a
ec
10
d9
e2
0b
fe
f6
f4
e3
f1
da
f5
ca
03
01
da
d1
de
32
11
f2
cf
f1
21
19
fe
e9
00
ef
1c
05
e6
f4
db
1a
05
18
08
e8
d6
04
0d
10
03
fc
27
30
19
2a
37
05
19
1d
26
45
f2
11
16
e6
e5
15
fe
00
fe
bd
34
ec
ff
ee
08
28
01
29
22
0b
07
2f
09
fd
f9
f6
12
01
09
0c
f3
09
02
16
09
fc
21
03
13
02
f8
0c
03
22
10
37
3d
3e
54
1d
f6
05
09
19
f1
06
02
f3
e4
e4
03
f2
f6
11
e7
22
f0
23
3d
0c
e2
bb
c8
c7
ea
f1
f4
e9
c4
f4
fb
ed
fc
1c
ed
fa
e6
03
32
11
07
ea
eb
e3
fd
df
ed
d3
aa
c4
0a
11
d5
de
fb
0e
05
f8
f8
f7
24
f1
ed
1b
03
19
20
ec
27
1a
fc
d2
9f
f3
04
14
f6
fd
26
02
1f
03
14
eb
25
eb
ed
0e
fd
e8
f6
f1
02
f5
d1
04
0b
d6
fc
11
e8
c6
b4
ca
ff
06
01
e8
d2
eb
35
fa
f0
ef
ea
29
0a
13
fb
eb
d9
e1
e4
cc
d1
01
de
ff
db
d1
03
ea
e9
dd
f2
16
ea
14
02
f3
07
f7
18
08
1d
d4
fb
21
fa
ef
e9
f4
0d
ed
0d
18
04
03
0e
21
e6
e3
19
0d
e5
1a
ed
0f
30
dd
f2
09
1c
15
06
ea
db
e1
07
00
02
f8
0d
16
ee
de
ff
e0
06
0d
eb
d2
9f
c6
ef
ea
c9
e4
c7
da
3f
0f
da
fa
13
07
f0
f2
fe
33
05
09
ed
c6
da
fb
fb
24
d8
d2
12
1c
ec
1d
e6
f6
fc
be
d8
f1
ed
1a
1f
14
0e
f8
21
02
16
1b
e9
11
e8
30
08
2d
0e
26
1c
17
22
2b
3b
12
0a
12
03
11
e8
f4
0a
ff
e5
32
27
24
13
e6
1a
46
1e
29
eb
04
02
0a
fe
0c
f4
e2
08
e5
0c
17
18
01
f1
dd
2b
10
02
e5
d9
03
02
2d
e0
f0
08
e3
12
07
2f
3e
0d
1f
15
f3
e4
fe
11
1d
07
f3
06
10
fb
f8
0e
f8
fd
15
16
15
e1
19
2f
1c
ee
cc
0f
11
10
0c
fd
e7
fd
ef
02
1a
00
0d
eb
06
01
ff
b4
b9
ba
d2
15
01
ed
40
31
18
e3
f7
ed
16
0c
f4
2a
f7
00
de
08
eb
d3
f3
fb
b7
d6
dd
df
ee
f4
04
fe
10
04
0b
e5
ec
f7
f9
25
05
0b
2a
ef
11
30
e7
0d
11
07
f6
1c
04
12
2d
1d
07
fe
f7
1d
1c
12
f1
15
20
25
e8
d4
fe
15
f4
0f
cb
ec
ef
f7
1f
f8
f9
0b
0d
04
ea
f9
cd
ef
26
23
12
f6
e3
19
33
fd
fc
e3
01
11
b4
d0
11
09
ff
f5
f1
fd
f2
05
1a
2f
1b
11
09
1a
21
12
1d
ea
0c
04
18
08
19
00
24
f1
f7
e9
07
00
f4
03
f4
f4
05
44
09
0a
fc
2d
3c
f1
c3
09
f6
10
ec
c7
e0
f4
19
f5
db
f4
f1
05
e9
07
06
06
2b
10
14
03
03
18
00
e7
09
0d
fc
01
09
06
f7
0d
fd
07
ff
e1
f2
0b
fc
03
dc
e4
e7
11
d1
cc
22
f6
d8
17
fc
08
eb
f1
08
c5
ec
0e
00
03
09
05
fb
f1
db
cc
0c
06
f5
cb
f4
24
52
ed
18
e1
f8
09
c1
1f
dd
f5
eb
f1
d5
d4
2c
1e
ef
f1
08
f9
30
16
0b
0d
b4
cb
0a
ec
e5
d8
f7
f8
f7
10
2b
fd
ec
33
12
0c
05
05
01
06
f4
f5
ef
f7
1d
39
fb
f4
fb
f9
fe
f5
a3
ec
f6
13
f9
04
cd
f1
f1
1d
f6
d9
d0
b6
d2
ff
f5
ee
dd
b8
11
ff
1c
21
ee
16
cd
f0
0d
16
09
cf
21
f7
0a
fd
16
e7
fa
fa
e1
fb
30
1a
f2
0a
2b
22
10
ca
f4
fd
0a
ff
e6
18
f5
0f
03
f6
e2
34
fb
d1
f6
e0
02
f8
f1
0f
3d
10
06
fa
25
3d
20
0a
f3
0f
ee
f9
1f
f0
08
10
e3
f5
c0
e6
03
f0
fa
f2
f9
0d
f7
fa
b3
e7
12
ef
0b
cd
fa
19
0c
20
01
23
04
e4
fa
2a
27
f8
19
12
da
f0
fb
05
fc
e1
19
fa
07
2a
05
03
ef
1b
19
ec
e9
d8
2e
18
1e
f4
db
12
fb
e0
e2
d0
0f
03
d8
e4
ea
13
08
fb
04
e9
fa
c3
ec
fb
f8
e7
d4
04
fb
0c
ff
07
0b
07
1d
00
1b
f7
31
23
0f
2d
0a
fa
1a
21
dd
ec
e6
16
19
fe
f9
e4
f8
1a
e1
eb
06
09
33
17
25
f8
f1
07
f0
17
ba
eb
db
e9
f2
00
f4
1c
02
ee
12
e6
0a
17
04
24
e8
d5
cc
ef
e8
e9
dd
e2
d4
00
1f
08
1e
17
0b
14
05
2d
eb
f1
14
1c
01
ef
f0
1a
fb
ee
04
cd
d5
08
dc
f0
02
04
0d
e9
20
32
2b
fb
19
f7
e7
e0
08
df
fd
03
de
27
09
00
eb
e5
23
fd
0c
e7
07
1a
f0
bf
81
96
2c
14
1f
0c
0e
fd
14
ec
f3
10
14
06
ff
f9
f2
08
fa
f7
d1
00
e2
e0
f6
0b
f1
f7
07
0d
04
eb
09
fe
ef
f6
07
24
10
21
12
fd
f1
01
13
fb
de
eb
e8
14
0b
d0
fa
f6
e8
ea
ec
01
f2
10
1c
cc
33
ff
ff
fe
e6
02
03
0e
06
f4
07
f5
01
fa
ba
0e
20
04
1d
eb
f5
06
f9
f2
e3
e7
e5
00
17
07
12
f4
f1
05
18
0e
07
df
ea
cb
db
fe
ee
e5
0f
05
f3
1b
1b
07
02
ee
fb
e1
0c
ef
09
0f
c8
df
12
f6
f2
c1
aa
d3
f8
eb
03
11
fc
cb
ff
0d
05
04
e3
fc
07
e4
20
fc
fd
0d
ff
10
33
ec
e8
04
eb
10
e0
03
03
11
27
05
fb
1d
1c
44
12
e5
f8
fa
2b
eb
17
fe
db
f3
dd
fd
f0
09
13
fd
fa
fc
11
21
22
3a
f6
e8
e7
d7
0c
f9
f3
09
e8
0c
30
16
0c
13
2e
25
f8
e2
ed
c8
ef
e7
03
e9
ea
12
df
08
d7
0d
1d
ee
e0
d6
28
1b
fa
16
37
25
40
10
0c
f5
06
f5
ff
ef
fa
e3
e8
05
e2
fe
f5
cb
14
dc
d9
fa
f0
05
03
0c
15
1e
10
2b
f6
0f
00
1b
f4
fb
05
07
29
d2
ea
e8
d1
14
e1
e1
02
ea
e5
e9
0d
fe
e1
2e
2f
04
1e
04
e1
fe
f4
da
be
01
db
02
1d
03
db
e6
e3
f1
fe
2b
1d
08
fc
f8
db
0a
25
1f
14
07
2b
1e
44
1a
eb
f5
12
f4
0e
02
27
f3
19
f2
fd
e8
fa
d1
ec
0c
ff
f0
d3
e7
16
01
ee
f4
15
0a
19
36
0a
eb
14
03
23
17
f6
ee
f8
27
28
10
e8
02
30
24
00
d9
e0
54
59
db
ef
f8
ee
00
e3
eb
12
11
f7
f0
d5
e9
f5
ea
de
01
30
04
f7
2c
12
02
13
25
38
00
1e
2a
07
0b
03
ff
f3
fc
e6
02
2f
3a
24
07
de
f5
3e
18
0c
cf
f3
0f
0d
1d
11
18
f8
ff
e0
23
28
fc
1d
05
f9
e5
08
e6
ed
0d
04
2f
11
11
12
2a
20
d5
e0
11
12
f7
e2
f2
22
15
fe
dc
1d
28
07
ef
e9
12
04
0b
08
e8
0b
ea
08
43
0e
1a
f2
1f
ed
0b
0d
1c
03
fd
e7
00
0d
16
02
f1
1b
0b
fd
df
d9
f8
01
df
10
14
28
00
fd
38
01
23
f5
0d
14
15
14
bf
d6
01
09
1b
f8
ff
2e
17
ff
01
d8
0e
48
27
13
00
e3
ea
16
0b
fb
f3
de
d0
18
13
25
18
1a
12
e4
b5
c3
cd
2a
31
d5
c8
f6
db
d6
fb
f2
f0
f8
fd
de
ff
e0
d8
e5
d9
13
ea
f1
f9
0d
15
d6
fd
1f
30
33
c4
dd
ec
e5
f5
f1
1b
f8
e8
ed
18
fd
fb
fb
ec
e9
fe
f5
f5
e7
d2
d7
d6
c9
d3
dd
ec
00
ff
03
04
c3
fb
11
1d
f1
02
06
e5
0e
17
22
02
2e
29
27
07
e5
ff
03
f8
0b
ec
22
e9
fd
ec
ff
01
ef
fc
f3
ea
db
f2
ff
e3
e5
fb
f8
12
11
06
0d
49
11
ea
eb
f8
f7
09
ef
1f
11
21
17
d7
08
0f
f7
e1
d1
f6
ff
05
eb
16
16
08
c7
ed
09
f3
02
de
f7
fa
21
0b
fa
f7
fb
05
e1
fa
f3
f8
f6
18
0b
fa
f7
0f
32
09
07
fc
0d
fc
21
26
fe
23
10
13
0f
04
16
3c
25
17
f2
10
ee
02
ea
fa
10
1d
25
19
2f
1d
27
e4
dd
ff
d6
d5
d9
ca
fd
f3
ec
f0
fb
16
19
ef
c7
d0
38
eb
b7
06
17
d9
db
e5
da
db
f2
f1
e8
cf
2e
ce
ea
ff
dd
d6
e5
cc
d7
f2
eb
de
ed
fe
fc
00
da
ed
cd
fe
be
07
2a
cf
f2
14
16
e4
f3
f5
0a
1c
d6
ef
f6
14
f0
c6
1a
38
2d
df
e8
16
07
fb
f9
00
de
e5
d8
0d
fe
e0
06
04
f7
ef
f7
fd
f4
14
f4
ea
f0
03
12
19
fe
e0
c1
01
f8
fd
e4
fb
f7
dc
d6
de
1b
0f
21
24
23
0c
1f
19
09
18
f0
1d
33
08
ef
00
0e
bf
d6
10
01
fe
eb
16
33
2f
f6
e6
f2
db
de
05
dc
e7
2f
10
f8
fb
fa
26
0b
fc
fa
10
03
db
e6
e1
cf
1c
18
13
03
f3
e7
ff
e8
cb
e1
1d
39
ef
e9
e5
e2
16
08
2b
1c
06
06
27
12
f1
10
e7
f5
f9
e9
0c
27
07
e9
d7
fa
fc
fb
f8
12
d1
bd
ee
e9
0a
d9
a4
f8
13
f1
e5
f4
0c
f1
e3
ce
c4
e0
0d
16
e5
fc
b8
13
1b
f1
22
e8
c4
0c
00
e2
14
22
21
fd
f9
ef
f6
26
14
fd
05
23
2a
2a
11
15
f5
f7
0f
21
25
13
da
bb
f7
1d
03
02
e2
ea
e0
eb
fe
f5
0c
f2
0c
f7
cb
f7
f4
ff
fe
1d
f2
0c
19
08
f6
28
11
0b
13
fd
e1
fb
1a
38
0f
1f
13
0c
2c
f9
fa
ec
00
e2
fd
ef
dd
d9
cd
13
e5
0b
f9
fb
ec
ee
16
0c
e0
e9
10
d3
d9
0c
11
0f
02
d3
e3
f6
df
24
1e
0b
d2
02
19
fa
ed
f6
ed
ef
ed
ee
13
18
fc
06
14
05
04
0b
fc
fc
e1
f6
12
f6
e7
15
fb
fb
ba
eb
f7
05
11
1e
07
0d
f3
f8
0b
0e
17
fe
e8
fe
23
0c
0c
f1
fa
11
14
22
f0
26
26
34
19
d6
e3
f0
02
0a
14
22
05
e8
1e
fb
0e
00
e3
ef
1c
f9
0b
01
f4
0d
e7
e4
df
f4
fc
0f
fe
18
03
e8
15
24
06
eb
f3
09
e5
09
f7
f3
01
0f
f6
ef
f0
0e
01
ed
e1
00
ce
f2
18
10
f0
0e
ee
12
ff
09
eb
b9
32
ed
43
1d
ee
fc
06
2e
2a
02
ee
dc
e6
22
fa
fe
e1
e6
23
e7
fa
19
bd
ee
0c
f8
06
c0
dc
02
f2
1a
16
f3
f1
03
00
dc
dd
f1
ee
19
13
e9
03
e5
20
dc
f1
ee
d0
05
42
1e
e9
dd
f3
2f
1c
f1
e3
d5
fe
1b
dc
cd
05
ec
e9
2c
34
13
f3
02
1e
dc
ed
e1
c1
dc
fc
e9
f1
f1
df
fd
17
ec
f6
ec
e8
fb
dd
16
f9
e0
14
fa
1c
37
11
19
e8
b2
13
ef
14
22
e2
c9
d9
eb
fd
23
0d
1a
06
0a
10
d5
c5
d1
17
d6
de
dc
f5
0e
27
fa
01
04
fd
fc
04
07
e7
ec
d2
c7
db
fa
eb
05
da
04
10
e0
3f
e2
f0
34
d6
03
f7
dc
dc
f8
e7
08
e1
e8
1b
34
2d
37
d7
27
0c
d3
47
ea
ec
0b
f7
36
05
c2
bd
fb
f3
06
cb
e6
c7
0b
1a
ff
f7
dd
0a
fb
ea
eb
e0
2a
07
f5
1e
f0
13
ff
f7
0a
db
0d
10
10
14
ee
dd
f0
1f
08
16
11
15
10
c2
d9
13
ef
37
ff
e8
1d
0b
33
1a
fa
13
0d
09
fa
04
02
ee
13
db
e2
e7
12
17
f8
2e
14
11
f8
fb
de
0b
06
ec
f0
df
08
ef
df
07
0b
01
02
ff
f0
1e
21
12
f9
11
e7
22
e4
f8
ea
df
0d
fc
22
40
23
05
f5
29
1c
14
09
ea
df
ea
fa
e6
22
01
f4
10
18
f6
42
fa
ec
ec
dd
37
fe
fd
da
ec
2b
e6
f0
09
01
df
02
1f
30
30
15
3c
ff
0f
f7
18
f7
e9
f4
ff
03
fd
fb
fd
27
07
10
2d
37
1c
21
2d
15
30
20
fe
11
04
d5
0c
d3
0f
2f
14
29
00
15
0e
1e
0f
18
0e
07
e1
c4
e6
d9
e0
d4
cd
b9
ba
c8
e6
ce
d3
e6
fc
f5
0a
f3
f5
1b
05
c7
0a
09
e7
ed
e4
0a
18
05
cf
0c
1c
2a
32
ef
05
28
42
14
41
11
0e
ec
38
1f
11
16
15
d9
13
00
e9
d3
ea
18
fd
01
3e
07
fa
fd
16
4a
1f
ec
01
d8
11
00
11
05
08
1b
24
24
2e
16
0a
fe
f8
10
f6
28
03
09
fc
c7
ed
15
1c
17
06
f0
00
07
ea
14
0e
06
e9
d2
ec
03
28
2a
25
fb
df
cb
07
1f
f2
ca
23
e2
ff
0e
e7
fa
fc
02
fd
0b
0b
d0
ee
03
26
27
11
fb
04
06
1c
05
e9
d7
de
1f
03
05
0e
01
39
15
15
19
f7
1a
11
f5
e7
f7
fb
da
e6
fd
2a
2e
fb
06
26
39
19
d4
ec
19
f6
ef
dc
fb
f3
02
e9
08
f5
11
f4
04
2b
eb
0c
21
fd
02
09
02
f5
1a
e3
0c
02
03
fa
10
0a
12
fe
0a
e8
fd
de
cf
e1
14
de
00
b4
e0
0e
c7
07
31
f2
09
01
09
e5
cc
14
1c
f9
cc
ca
2c
36
09
ff
fc
0e
1b
23
0a
c3
f5
d9
06
1a
0c
24
f3
f0
ff
e4
38
03
f6
14
13
17
eb
06
f1
de
e6
c2
29
fc
e5
21
d6
0f
ce
c6
df
de
d8
de
f4
05
fb
e7
f9
ec
ed
d1
df
01
ec
cc
f0
f8
d2
c3
1f
17
f6
b7
d2
1a
ee
fc
d2
04
25
0e
e4
e9
16
f9
f0
e2
f7
f6
c5
00
09
de
17
12
05
29
4e
1e
1a
1a
06
04
24
1e
e3
f2
03
f2
f7
df
1c
14
eb
c4
ef
30
e6
10
f7
23
03
ea
43
f0
06
16
1c
00
e6
df
fd
16
d8
da
ff
09
d8
0d
0a
06
cf
f9
f0
01
1d
fa
db
dd
02
f1
1c
d4
ec
21
df
f3
df
e5
d9
cf
f6
ea
ee
ee
f7
f4
d9
df
fe
e5
25
48
0b
0c
1b
f8
09
27
eb
1f
04
0b
2b
20
1b
1d
10
15
19
0b
2f
0e
08
01
11
e5
ed
fc
0b
06
21
20
18
06
12
f8
f5
fe
15
16
2a
f9
de
0e
fc
05
1f
ce
db
fd
05
09
2d
c6
0a
17
fa
ea
0f
fb
fe
e8
09
0f
1f
10
16
d7
09
06
09
c4
18
1c
df
fc
bc
d4
f6
fd
e5
e8
d8
04
22
d0
f7
e9
00
08
0d
f8
f4
fb
00
04
12
fa
f7
10
27
1e
0f
02
1b
fd
1d
07
15
04
02
10
1a
00
25
f8
e3
e8
14
fc
fd
ec
13
0d
04
32
26
f3
2a
22
01
2c
1e
ed
f8
f6
16
08
e7
0f
0a
04
15
0b
1d
22
f0
ec
d9
f9
24
f1
90
ff
20
f6
f9
f8
f5
27
ef
1e
00
f9
0b
00
03
ee
fd
f6
0f
31
23
f3
f9
b6
17
1d
2c
f0
f4
04
e2
08
17
f9
d2
e0
eb
0b
01
0a
02
fc
40
13
f1
15
07
10
2c
d9
ea
4e
1e
1e
12
ec
fa
2c
05
11
ea
e4
ec
0a
2f
49
50
2c
12
fd
32
10
25
e9
fa
2f
0b
01
e7
4c
e5
04
0b
21
1a
e0
10
e5
19
fa
f7
17
34
fc
06
f5
eb
32
1d
0f
29
f1
fe
15
10
2b
24
f0
11
1b
fb
f1
fe
18
2b
17
fc
0a
24
51
10
ff
1d
e4
09
d9
eb
e3
19
f7
0b
f2
fa
eb
dc
e7
f7
fc
f8
22
1b
f6
e6
10
1b
ff
bd
fc
02
1d
17
fd
f3
01
f9
ff
04
e8
25
02
12
dd
ee
1b
2d
ef
ff
e8
20
28
dd
d7
f4
d9
14
20
04
f6
fc
e4
e8
fd
0a
02
ec
08
35
42
fd
13
d6
1f
fe
1c
07
f5
2b
15
1a
24
26
26
0c
eb
e6
ef
02
04
15
2e
12
0a
24
e1
13
29
1d
22
ee
26
24
32
40
18
15
0c
19
e5
fc
fd
22
f4
03
ff
fa
ef
fe
f5
ff
01
1e
f7
f2
0b
cd
dd
f6
f6
c4
11
fb
11
2e
0b
f9
f2
08
18
09
f0
e9
f0
ff
03
e4
10
1b
fc
ce
ed
d5
e4
cd
0b
08
10
0b
08
19
08
e1
e6
c7
08
f1
08
04
0a
e7
14
20
2f
e1
17
0c
0a
f6
ff
fc
15
0e
1c
14
f3
ea
14
0d
fe
e0
f7
ed
05
15
ee
dc
11
e7
ed
21
07
1f
03
d9
18
60
e4
fb
07
f2
06
17
ef
10
f9
03
15
11
24
f6
0f
ec
e0
f5
fd
0b
ed
00
e6
c4
ec
f5
00
ff
fc
d7
ec
10
05
1c
08
f7
f3
e0
eb
10
ef
e2
e6
e3
be
cf
00
fa
f9
d2
25
fe
01
fd
09
0b
26
00
05
f4
f7
00
e4
24
12
0b
03
09
f6
df
05
05
df
f3
e6
00
02
0d
f3
f1
23
0c
f2
fb
ed
20
fd
18
f8
ea
08
19
fb
f2
19
25
17
0b
24
0a
0b
1b
e8
1b
c5
f6
e3
dc
dd
ed
08
1e
21
10
1a
03
f9
0d
03
04
00
ec
d5
22
e2
0a
d4
0e
f3
fe
f8
f0
16
02
e5
08
ee
31
06
01
16
04
20
1a
d1
34
02
ff
0b
24
1c
f2
f0
09
ff
d8
f5
17
d8
10
e5
1d
15
11
f7
02
18
28
0c
e6
c9
ea
ff
f9
0e
07
e4
df
ec
11
07
1c
ff
f7
fb
ec
21
14
08
11
f0
2c
21
19
38
28
0d
ec
12
ef
f7
db
ef
f0
db
cc
fc
f1
fd
1e
1c
31
1f
f8
00
e3
fa
09
e0
09
99
19
15
15
e0
05
1d
e5
00
05
0b
27
06
18
fa
ea
fd
ff
f8
de
0d
13
e0
3a
0d
13
df
fd
02
28
04
f4
fd
f1
e2
00
f0
f2
fa
ef
1a
05
05
0c
00
f7
ee
e6
1f
db
fc
c7
08
d3
c5
32
00
09
ed
10
18
ff
0b
fa
09
fd
e8
fe
00
f0
ff
ef
d5
20
13
d6
cb
e3
20
1c
2e
e1
09
0f
ff
14
21
0e
c9
ed
2b
08
0c
ff
03
e9
d2
db
dd
ef
16
06
c7
f2
da
d9
bb
e5
c3
09
dd
eb
f0
4b
28
00
d7
0c
e8
f2
1d
26
40
ce
d2
d4
1f
5b
13
0b
27
15
f7
50
20
fb
ea
ee
fd
e0
f2
02
0b
05
e2
fc
d7
dc
fc
d5
fc
dc
d2
21
21
f8
ba
e4
ce
c1
16
bc
e9
f2
0f
10
cf
cd
f8
0c
fb
36
0d
fc
02
fc
f6
e6
1a
0f
ba
e7
fc
1a
16
01
24
23
1f
ec
fe
52
54
c9
f2
eb
f1
de
e2
fb
f8
ec
0f
fb
f9
12
ce
15
dd
d5
f6
fb
06
13
25
ec
00
f4
dc
09
fd
f6
fb
f2
11
1b
f7
fc
d2
04
e8
f4
1d
f3
0e
05
45
13
11
f8
fa
24
14
fa
f8
08
09
f8
d6
f1
0e
11
23
d4
dd
e5
04
fe
07
fd
d7
f2
f6
ff
09
d4
f8
43
06
ec
e4
42
48
05
f0
f3
f2
2c
0c
f1
f6
1e
f0
09
09
2b
fe
e6
e4
08
0f
1a
26
e9
0a
ef
e0
e1
dd
fa
fc
c6
d7
d8
f5
29
e1
e0
f7
11
e7
f3
26
0c
db
ed
15
2d
32
25
f5
1c
1d
f3
0c
21
1f
0e
ed
e4
02
f9
fb
07
07
39
0e
06
f7
1c
34
0b
05
f8
00
14
d2
c4
fe
fa
ff
0c
d2
fd
db
cf
c5
38
f5
09
06
f5
2b
16
0a
f9
10
18
0e
f3
fd
11
18
13
12
e5
d5
1e
09
20
28
35
30
0d
05
14
f2
03
cc
f4
11
10
12
0c
00
45
11
eb
e9
f4
0f
e4
f8
ef
fe
2d
f3
02
01
5d
48
0d
ed
f0
06
2b
d3
fd
ff
f4
21
22
0a
01
f6
fa
08
fb
1e
fd
0d
e8
e0
f3
c6
15
ba
f5
e4
01
10
d8
e4
ee
fa
fb
09
11
11
f4
e5
19
07
00
ff
d4
e7
fd
dc
e2
e8
fa
1c
16
24
10
0c
1e
e1
0b
22
10
1f
08
d7
fe
02
1e
f2
e9
d4
e2
f5
12
ea
ee
00
16
2a
36
25
09
0a
fe
f2
db
cd
05
fd
19
18
3a
f0
1d
1a
09
23
0e
0b
33
14
20
f1
e1
f0
fe
1d
dd
15
12
0e
ea
c4
1d
19
f6
fa
01
fb
11
e9
fa
2b
b7
d4
05
03
06
dc
e6
f6
f2
ec
ec
08
00
d5
cb
de
fb
23
08
11
d3
17
f7
1a
0d
ff
52
19
2c
14
08
f1
19
40
13
04
e2
9c
d4
14
14
0f
f9
f6
3b
f3
e8
1b
28
1d
13
19
fb
e5
eb
fa
1b
10
e7
d6
16
00
e6
e6
dc
03
14
20
08
ef
11
18
e7
0e
e9
fd
41
0b
0f
f5
eb
da
e5
0c
fb
13
dc
c2
d9
0a
f3
0e
0d
26
f2
2e
21
d5
e4
d4
26
0e
fc
f5
e3
fe
f7
f3
01
d3
15
f1
da
da
fb
04
fc
e1
f6
06
31
ff
d6
38
1d
11
07
08
02
03
e2
11
09
09
d6
21
20
1b
0f
e9
fb
05
f4
39
1a
fb
01
1a
33
35
01
fa
fe
06
e5
1e
f9
fb
01
ea
f7
ea
c4
0c
1c
10
05
d1
d3
13
10
f4
e1
14
dc
fa
f7
f5
f7
c5
fc
1e
1b
ee
e3
eb
e6
f5
05
e2
ea
22
ff
01
f9
f9
0a
0c
0e
0e
fa
f1
f6
09
10
19
e9
0f
ea
16
ef
eb
eb
e9
10
18
f7
08
1a
1c
01
01
f0
f6
0e
0c
fe
1c
dd
26
0e
1c
27
f3
0b
fa
08
40
48
f3
03
f8
e1
d0
0f
fe
f8
e1
ce
f1
fc
b4
c4
00
15
32
0e
0f
e8
19
03
36
3c
22
17
06
07
17
20
1c
e8
f4
f9
f2
00
f9
be
db
fe
0c
1b
e5
d5
ee
03
15
1c
08
ef
cf
f4
13
32
33
15
0a
ea
27
1d
2a
eb
35
16
e6
12
13
ff
e9
f9
ee
12
13
f5
1b
18
f4
07
0d
2a
37
0d
ff
0e
e7
02
04
1b
12
16
fe
01
d7
dc
fa
f4
f3
17
f7
1a
14
0b
04
14
01
ff
0a
e8
f2
d3
d6
06
ea
0e
03
be
01
00
fe
eb
e2
14
04
16
35
23
14
39
11
07
f5
da
ea
f3
0e
e9
fb
fb
d1
07
1b
10
14
fa
1b
f7
0d
f3
e4
d6
ce
08
f8
e2
fb
ee
fb
fa
06
01
1e
d0
00
f5
0a
2d
f8
05
2a
16
0f
0a
14
16
04
1c
ee
ce
e6
fa
e1
fe
0d
16
f9
04
0d
0a
fe
08
10
18
38
39
f0
04
fc
ec
cd
e4
eb
00
29
e1
18
3b
dc
ff
0e
15
1c
f8
0d
20
39
04
0c
f9
e8
ff
dc
f5
03
05
13
11
22
00
09
07
e6
dc
d7
f1
02
e3
1b
fa
05
fc
22
f7
0e
e9
e4
24
fb
e4
0c
31
10
1e
1a
f8
03
11
f3
0c
06
f9
d9
ed
ef
05
db
0c
fb
f1
d5
f8
1c
01
f0
02
f9
f3
1c
28
3c
03
1c
06
ff
f5
20
17
fc
17
14
30
18
f7
d6
c1
ed
fb
f9
fb
e5
de
03
f1
c7
f3
ed
13
08
f2
fe
10
44
03
20
06
0b
10
18
2c
20
0a
f7
fb
ea
05
15
f5
23
2b
0c
e2
51
fa
1c
f7
ed
e0
f8
f4
06
ed
db
f9
f2
f1
24
29
04
22
fb
f1
07
e9
07
09
07
06
e3
2e
2a
0e
20
f2
f1
dd
15
df
e4
bf
e5
00
dc
08
fb
05
33
13
f7
f8
2c
0f
f9
f1
e0
19
15
da
f0
cd
06
df
da
ff
f2
0f
ee
f3
fc
f8
10
f1
e6
f0
ed
dd
d6
e0
f8
ff
ec
d5
08
0e
0b
06
fd
f0
08
23
21
d1
f8
0c
03
27
43
05
29
f2
43
39
e5
18
02
24
ec
f2
0a
e1
de
ac
05
eb
fa
d5
d3
00
11
1a
e7
ed
0d
d2
fc
f2
05
08
01
f5
fe
12
15
01
1a
fc
41
2c
1b
3f
1a
02
ec
0d
f3
18
19
13
ff
00
d7
f8
fa
ef
0d
05
1c
23
ff
1e
e6
d4
30
0a
05
09
1c
fd
ec
eb
f0
f4
0d
e1
e1
06
07
25
25
11
f1
0e
1c
18
0b
00
f1
b7
11
f1
f9
e0
17
fc
0e
fd
11
17
08
14
13
d5
02
fd
0b
36
f8
89
e9
eb
0e
05
0b
e8
f9
ed
1e
44
23
15
2e
28
12
fd
f7
f0
0f
d6
e2
dc
dd
04
f0
fc
02
e0
11
4e
13
2c
f0
ee
e7
04
44
36
06
02
0b
0e
fa
0b
df
f7
23
06
df
e0
fc
e5
de
0f
25
df
f8
09
1e
1c
21
0e
03
02
f3
19
1d
0e
0d
c5
0a
fe
ef
ce
f3
1f
0f
09
2a
ff
e9
ea
f4
f4
fa
11
2d
11
06
05
09
28
18
f3
f9
00
2a
2a
f6
d2
e2
02
24
20
2d
e1
f6
0a
3d
28
f7
e3
0d
fb
13
11
24
f2
dd
2f
22
f1
16
fa
e6
dc
1a
26
0d
10
e9
0e
36
4d
05
07
fa
f5
ee
f2
27
13
df
09
cd
19
28
f9
bb
bf
f9
08
1c
07
e8
ee
12
1a
30
33
07
10
f5
08
fe
ef
0c
f4
15
e2
f0
f8
17
37
20
ff
d4
fb
23
35
0c
f3
f2
f0
bc
ea
0d
f6
fd
07
1d
1f
14
32
04
0b
e8
0d
e3
04
f2
25
e7
e2
fb
fc
12
f9
1b
15
04
cf
e6
f8
23
e5
f3
fa
15
f5
f6
d8
06
e0
dc
33
17
0b
21
07
19
38
4d
de
f0
fb
0c
ef
ee
e9
14
35
15
f2
02
1d
ff
02
17
cd
09
32
24
09
08
f1
17
01
22
49
10
33
0a
ff
0d
f5
12
08
27
f9
db
ea
0b
17
19
07
f7
de
ed
2e
00
16
17
13
02
c6
e4
02
ce
fb
e9
e5
cc
cf
03
fa
ef
ff
1f
11
00
ef
f1
f9
03
1e
09
05
e1
3f
22
37
2d
26
f4
04
02
f5
f6
d0
00
df
20
fb
f8
18
da
e8
3a
33
06
da
f1
f8
f3
25
44
2c
fe
ec
21
22
18
dc
e3
e4
fd
fd
03
10
fe
06
f9
29
2f
e2
11
15
ff
e6
08
fa
07
fe
ea
23
15
16
02
06
20
fd
1a
fb
df
24
ff
f3
07
c8
09
fd
0e
f8
df
f0
1e
08
1a
0a
11
19
f9
3a
18
03
f6
df
05
f0
0e
17
f2
0e
16
f6
00
0d
1f
0a
e4
d6
e8
ea
fd
f1
05
d3
f1
ea
dd
de
eb
e4
f3
c4
bd
de
05
41
12
f9
2c
06
11
01
13
02
09
f3
0f
ed
e5
04
14
fa
02
1d
d0
e1
25
07
f6
fb
f1
35
3d
f3
f5
d7
e8
e1
ae
f2
0e
05
32
f8
f6
0f
fc
1d
d9
0b
35
cf
10
12
21
fe
f6
20
20
f2
d9
fc
0e
11
0b
15
f7
11
05
1e
0e
e9
b8
e2
17
19
12
f9
1d
f1
15
17
fb
fa
03
35
20
e5
f3
05
39
f1
f9
ef
f6
12
f5
f2
13
1a
f7
f9
dd
fd
e6
03
f3
ee
ed
e8
13
f8
05
ff
ee
f4
15
23
f2
05
05
f2
02
19
11
2c
fa
25
15
02
fe
d6
e0
f8
06
dc
04
0a
fb
eb
fa
0d
ef
f5
0e
03
28
01
1b
0b
3a
2b
29
28
3c
46
31
42
33
24
00
0d
f3
fd
f3
fc
05
22
14
fe
0f
1c
ff
e4
15
15
e3
fc
05
0f
18
ca
e9
0b
fa
0d
fa
09
ed
f0
f6
19
e0
f1
fc
db
fa
2a
14
fe
d1
e8
ed
c3
1c
e5
d9
c3
ec
1a
dd
fd
dc
fd
0b
06
f6
f5
02
08
1c
f0
16
29
09
bd
d2
d2
e6
04
b2
de
eb
e4
eb
f6
08
05
f9
06
e7
00
eb
04
b9
ef
16
ea
e3
d7
e9
0e
e2
f7
ec
f0
15
12
29
ea
d5
f3
f8
2d
0e
fd
f5
0e
2c
0f
f9
fb
02
07
13
ed
f4
ea
cc
de
e5
00
d5
ca
f5
11
e5
ed
0e
02
0f
f0
fd
d2
04
e2
08
0a
18
f9
1f
1f
44
1f
1e
30
13
35
29
15
e0
f7
08
f9
0c
ff
09
db
e7
fd
14
05
fb
22
09
1b
18
22
fd
de
30
02
fa
f6
10
18
01
f6
ea
0e
26
15
f1
e8
22
00
26
15
fd
d4
09
f1
08
08
fd
e8
df
fe
f8
fa
11
ff
f3
be
ce
0c
0e
09
06
c4
bb
db
e2
f4
e6
f4
0d
f2
09
d9
f7
f4
11
25
02
0e
f3
33
37
1d
db
f1
fa
0c
04
28
08
10
20
1d
03
2e
2b
05
f0
0d
d7
cd
e1
01
e0
f8
c2
e4
d4
dc
f5
ed
d5
e4
b3
04
07
ff
e0
de
c9
d6
f7
e3
d1
de
f7
3d
e5
ef
06
f7
ad
07
05
0d
e1
da
ed
2e
0f
14
f2
0b
01
4c
ed
ee
1e
e8
13
fb
10
0f
ff
e6
f0
e8
d8
fe
26
13
fd
f8
e4
09
0f
15
dd
fd
e8
0b
11
e6
00
05
1f
ee
18
1e
28
15
d0
ed
29
3f
01
0b
dd
1d
14
09
d1
ed
11
07
31
ed
e1
08
36
03
fa
0e
1e
e7
f6
f8
d5
fa
f4
05
d1
bd
0a
03
12
0c
f9
1d
0e
1a
dd
ef
0f
34
16
d8
f1
13
28
27
2b
01
0a
08
f9
11
0a
18
f0
eb
12
1c
09
0a
f9
13
01
12
db
f7
03
01
fe
e8
e1
e7
f8
cb
13
05
d5
bc
0c
e7
2b
20
de
bc
10
22
f5
fd
10
0f
fd
f4
2b
0a
04
15
2e
41
1b
e5
fa
0f
50
10
d3
df
fc
27
0d
19
0f
30
11
03
26
f4
0e
11
ee
ec
e4
e5
26
fc
01
e5
e4
01
00
1f
fa
c9
e4
f7
0b
0c
e4
09
da
14
10
fa
19
17
f3
f4
22
1f
03
ff
fd
01
15
02
0a
23
17
e1
ef
f5
09
2d
eb
00
e7
ea
02
f4
ff
02
14
3d
48
f8
e5
15
56
3f
f5
ee
fb
30
05
e7
e2
1a
0e
f5
1a
f3
04
f0
ed
0e
fe
29
08
06
e7
ef
fd
05
fe
f9
d8
10
12
13
01
fa
ed
14
0f
d8
ea
f9
1b
eb
d7
0e
d7
04
ed
1c
1b
24
00
02
1d
1b
08
ce
08
06
d5
e9
ef
eb
04
43
02
1d
ff
0e
1f
39
13
fc
fd
23
0a
19
ef
fa
de
ea
09
dd
fa
f3
0e
01
f0
e8
0e
0d
19
13
f2
0a
ea
f5
dc
ef
ed
c1
cb
13
0c
fc
04
06
ff
0a
31
3a
11
07
01
ec
ec
e5
34
1a
f2
eb
09
03
ff
18
09
f8
db
22
4e
43
08
18
2a
11
ed
e7
1c
23
e9
d7
f9
da
fd
e9
d4
e1
d2
eb
07
f3
e2
fc
ff
fb
03
3d
19
f8
cf
11
27
0a
fb
06
f0
19
02
15
08
03
f9
f0
0d
00
06
05
18
30
1e
f5
cd
fa
03
ef
f0
0f
fa
e8
d5
0c
0d
3c
46
07
e0
e3
d0
d5
de
c4
00
f3
11
e0
fd
03
07
09
14
fc
15
1f
f9
00
05
e1
fd
fe
30
fa
de
07
fd
e8
c5
f9
09
11
e5
0e
d6
f6
f4
18
21
22
0b
0c
04
f5
07
08
15
13
27
19
0c
f7
d2
dc
d8
13
21
f2
0a
e5
ff
12
19
14
1e
fa
04
e4
fb
1c
12
3d
00
0a
e6
e6
0a
08
24
28
24
1f
25
1f
1b
23
19
c6
df
ea
f6
01
dc
f8
11
f1
fd
06
04
07
ee
2a
e0
db
f3
e9
ee
cd
e6
e7
f7
ea
2c
f3
fa
f3
f4
00
06
07
0b
03
f1
10
2d
00
1f
f9
18
06
1b
ee
3b
03
22
db
0a
14
01
0c
f7
ff
11
e6
07
04
0f
27
15
01
0d
fc
fe
d9
db
cc
eb
da
e1
19
13
ec
f7
f2
02
f8
09
0d
10
1c
15
0d
03
01
0e
2b
02
3e
55
16
c6
f8
ee
00
13
1a
0a
cc
dd
c7
d3
07
1e
11
fe
db
d5
12
0a
27
fd
fc
21
19
14
06
e1
0b
28
42
f8
e9
19
1b
13
da
ee
1c
04
cd
e1
ca
fd
f8
d5
e4
ec
0d
2a
f1
0f
02
4b
2a
37
16
19
d1
e5
0d
ed
f2
f9
fb
e8
f5
f6
f5
e0
d9
e8
fa
e0
0a
eb
0b
07
cf
0b
05
0e
1b
e9
07
13
f9
14
15
15
ec
04
18
d5
ee
03
f9
ed
2a
ec
f4
d4
de
0a
ee
ff
cf
de
01
fa
f8
cf
d3
f9
e3
d7
0d
f6
0b
16
e6
df
f6
e3
0a
02
11
19
e2
f9
ec
f6
0b
ed
f2
17
09
36
06
09
20
f6
03
2c
30
1d
0e
fb
05
0e
05
f3
00
fd
1d
10
19
16
3e
1c
19
0b
01
08
eb
ec
0c
ea
09
03
ec
d3
f6
df
fa
f1
ea
06
20
f1
2f
ec
fd
ec
d4
01
fc
ec
07
00
13
d5
f3
28
c8
bc
09
07
fd
cc
b9
0f
15
1e
03
da
26
23
09
0a
0d
fe
fa
fa
ee
f3
03
2c
05
ff
d6
fa
0b
02
f5
fa
f3
22
f4
15
19
09
f7
f4
e6
f0
09
0f
00
23
fe
01
e0
ea
fc
db
0e
10
21
23
d4
1b
25
e7
19
f8
28
1e
17
11
13
09
32
f9
0d
0b
02
0c
06
ff
f8
f7
02
33
23
e1
fb
18
fd
0c
01
04
1c
08
2c
de
fd
1c
09
29
f8
e6
23
01
0c
07
f8
0f
e1
0a
32
1e
fe
08
06
ff
16
16
01
ee
fa
00
f5
dc
ed
ea
fd
15
03
03
14
0b
1f
1e
e1
de
19
2b
f5
16
ea
00
1e
0d
23
08
21
45
16
fc
12
16
26
33
2f
2f
15
e5
f3
00
0f
16
09
25
de
f7
e5
f3
fd
3b
18
fa
09
f8
0d
de
fc
1e
f1
00
12
0e
f6
06
d1
31
f8
22
0e
ea
19
f9
ec
21
dd
ec
24
0c
0d
fb
0e
02
fc
dd
e8
12
fc
05
e8
f4
13
d2
ee
e5
0d
05
f1
ed
15
10
24
e8
0b
dd
b9
db
01
f3
11
19
6a
0b
f0
0d
19
4b
0e
01
fa
10
28
fa
01
0c
38
1b
0e
04
f9
eb
01
fb
ef
33
1c
ef
ef
29
cc
ec
42
e9
f4
14
f9
15
ed
ec
eb
dd
16
25
f9
d7
e2
0e
e9
e7
f5
fb
02
26
29
eb
1c
ee
3e
40
dc
11
f2
1a
12
d1
fa
07
f8
21
1d
40
18
f6
fe
0a
eb
c5
d0
e2
ee
f8
de
d8
fc
11
d8
00
d0
05
13
04
18
0a
e9
1c
05
c8
e0
ff
08
16
31
25
f3
0e
22
1e
13
f4
fc
17
0f
20
d2
f3
03
f6
02
00
ea
0b
0e
0c
17
ed
bf
dc
23
42
e8
f9
04
23
41
ef
e7
e0
1d
05
d9
fd
de
09
e7
ef
fe
15
14
f7
18
27
46
09
fa
f9
1e
1b
06
d2
15
18
1f
f3
f0
00
06
f0
d6
05
ec
fd
0a
f5
e2
13
19
12
1f
0f
0f
12
0c
f9
f6
0f
f3
d7
ea
e7
07
0e
0e
1f
f7
f4
16
fc
d3
fe
f7
1b
47
18
09
02
0d
22
03
e3
08
1f
16
f1
09
f3
11
f7
02
18
fa
fe
fe
0b
0a
e6
f8
22
11
fc
f3
f3
f0
c1
ff
db
27
d1
16
08
fe
0f
f9
07
fd
16
f5
04
05
fa
e8
f5
01
0a
e7
e1
06
2c
0a
13
fa
38
e1
ed
e5
fa
f9
d5
04
14
ff
f7
19
e0
02
13
fa
ea
3b
34
ff
f4
d6
f2
15
00
06
e2
1f
fb
fe
2a
f8
f5
e4
15
20
0c
f5
18
00
1f
10
02
ef
0f
10
32
31
05
fa
05
1e
05
e7
f9
15
21
35
16
00
07
f8
18
0b
f9
e2
93
be
f6
de
00
df
c2
25
e5
08
cd
f0
02
17
fe
19
10
e7
1e
ff
34
fc
02
02
01
0d
c4
d7
10
2f
0c
07
07
02
ed
22
ff
24
1f
1b
23
c6
05
d8
ef
05
0a
dc
f2
f8
b2
e0
12
03
e5
eb
f5
24
0d
fe
e8
12
42
13
0d
0e
f5
e7
ec
fe
01
18
1f
f3
e0
eb
13
f7
f5
08
fc
02
00
ed
ea
17
dd
0e
10
12
e0
db
fe
f4
ff
0d
2d
ec
fb
0a
0e
27
1f
03
1b
09
ff
ff
11
e5
04
02
e0
16
de
da
be
01
e5
10
12
09
e7
29
36
0e
24
17
f5
18
00
1c
e3
f5
37
d5
18
25
db
1c
ea
de
f1
ef
01
fa
21
09
03
00
12
07
e6
fb
0f
1c
ff
ef
d4
2c
1e
22
1c
f3
14
0f
15
f3
f7
00
30
12
30
0c
12
d2
d6
00
f2
e3
07
f9
2b
ff
db
cd
e1
12
00
c0
e9
09
29
db
ca
ae
d7
fd
f4
d9
f8
fc
18
27
04
fa
0a
0e
29
0c
f1
eb
09
15
25
09
fc
11
19
ee
d4
ca
e2
12
df
cb
e4
07
11
03
df
eb
35
f7
dd
f4
dc
26
e8
fa
dd
21
32
f7
be
e8
ab
ee
ca
bf
fe
37
08
f6
e0
fe
1f
ce
f2
df
0b
ed
e4
05
bc
e2
e9
c6
f8
bc
e2
2c
1e
10
06
c5
d9
f1
16
e9
dc
01
0f
00
e5
db
12
ec
03
dd
ce
d5
00
f5
dd
e6
c2
fd
ee
07
e6
e4
ff
0f
dd
d9
3b
e0
00
fa
f2
2a
e3
04
da
e9
07
08
ee
f2
fa
11
e8
00
0b
e6
15
0b
f2
ca
e5
50
fa
fd
cf
2b
28
11
0c
ef
e8
00
e5
03
e9
06
23
fa
10
12
fa
0b
10
1b
16
e2
da
e6
ff
19
e1
af
be
fd
11
0d
00
f8
07
e9
e4
02
e5
f8
fe
f3
17
29
e3
f4
fd
18
b7
ed
12
20
1b
fa
02
e3
fe
f3
12
09
ed
ea
4f
fa
cf
f6
06
fe
e0
d7
ce
31
f0
e4
29
3f
02
df
0e
01
1c
f7
09
ea
e4
19
39
0d
fe
ff
01
ee
d0
f3
e4
fa
f4
f2
24
21
1e
f6
ea
db
d1
00
fa
df
f7
f4
e0
03
f4
ed
1d
09
03
0d
06
00
11
f5
f2
f8
01
35
18
1a
07
f1
3c
1f
fb
f4
fe
0e
17
d5
d5
16
03
06
b1
f0
fb
30
e6
ec
f6
27
3a
e3
eb
ea
fe
28
0c
d7
08
25
25
19
f1
f6
ff
ed
01
02
21
09
fd
ef
b3
32
fe
ef
c6
b0
fd
f4
18
fd
fd
ff
ff
fa
eb
e7
e3
21
ea
e0
fe
16
02
e8
ff
19
1b
f8
db
d0
fe
f4
f6
de
ee
1d
fc
0a
d3
dc
ee
f4
08
28
f4
e4
cf
dc
fe
09
ea
d0
22
08
2b
fa
f6
f9
09
0b
16
02
fe
23
f1
e4
da
f6
dc
26
3d
f7
2c
10
db
fb
54
d9
f5
0d
e0
24
0f
ee
f4
e7
ea
14
f6
e7
05
04
f5
e6
f9
09
4c
ea
03
ed
f3
20
1b
f6
fb
20
d4
42
00
f1
0c
cd
19
0c
f7
36
3f
f6
f9
fd
2d
42
12
0a
f8
fa
01
f9
01
20
10
e3
f1
09
13
e0
02
ef
fa
e1
f9
1d
ee
20
73
3d
06
eb
fc
ee
35
c5
0c
0c
f3
f6
ee
0e
0d
07
e3
23
e4
ff
3c
15
2a
cf
ea
fc
21
22
1a
fb
ef
f7
0e
ff
12
27
05
2c
c8
f2
0a
25
f6
00
e8
fc
0a
08
ef
14
41
32
e2
f5
d4
12
e7
13
fa
f8
e5
26
ff
f3
fc
13
25
ee
17
03
f8
14
cd
14
24
50
2b
06
e9
fd
1f
28
1d
e8
24
d1
dd
ee
04
eb
e1
d4
ed
12
19
25
19
16
eb
d7
d1
ec
20
02
08
06
d5
df
04
e5
f4
0e
e0
1c
0b
14
fa
f7
e5
f7
1f
24
2b
12
3c
4f
e4
f2
d9
c9
24
62
ee
0e
01
f8
19
24
01
00
0d
ed
22
f8
12
1e
e9
17
20
0b
10
d1
0c
09
03
19
d4
00
09
f2
e9
ef
df
3e
04
1a
e4
fe
f9
ff
2f
f4
f6
f7
15
2a
1b
ee
ff
e9
2f
d8
e2
f1
ca
0a
f6
06
00
fc
ef
f0
fe
ed
0a
fd
e8
fa
15
ef
ce
bb
21
ee
05
06
ff
db
ed
e6
14
37
0e
f1
11
06
16
f4
eb
05
fa
0e
2e
1f
02
cc
d6
08
f6
f5
e8
cf
dc
0f
0d
0b
e9
f9
12
2d
16
13
0c
11
02
f7
26
0d
fe
c1
e8
15
23
31
02
d7
bf
19
f1
e6
0e
ea
d3
18
c8
d3
ca
f7
f3
06
f8
14
33
cd
e5
0c
ed
f6
12
15
fc
c7
da
d3
12
f7
1f
1a
d3
fb
04
ec
f2
fc
ef
28
13
16
d4
de
13
ee
03
15
35
33
27
fd
f5
23
26
01
21
23
1d
ff
f8
f5
de
d8
ec
f2
18
2e
1d
15
17
1e
fe
08
11
da
f9
fa
de
b7
c6
e9
dd
e9
00
05
0c
f5
1f
18
f2
06
10
00
f1
0f
f7
d8
e4
c9
e3
06
d8
f4
0b
36
eb
11
1d
14
14
e4
31
1e
0f
f8
03
06
13
ff
e8
05
11
f0
d0
de
e2
31
02
28
a5
ec
e9
ff
22
f7
df
03
11
16
06
fb
01
cf
eb
17
e4
fa
2b
08
08
e6
45
19
d0
fd
12
16
0a
e5
e5
14
08
ff
da
03
2e
fe
f6
f6
f1
2a
e1
e8
15
08
fa
ed
e2
d2
db
e6
c5
cc
cd
ea
f2
fc
17
12
09
dd
ed
fe
de
09
f9
0e
fa
fb
18
29
e4
d6
c0
0d
0e
dd
eb
ff
21
e7
09
0a
10
f9
ff
f6
f8
f2
f4
04
0d
2a
10
36
1a
f8
05
03
0e
15
fe
27
f8
da
03
1b
ff
05
fd
ff
08
fc
0f
08
fb
08
fb
bd
cd
d4
31
e3
ed
f8
fa
04
13
f8
29
0e
0c
dc
e9
fe
1b
08
fb
02
05
d4
ef
29
29
ed
0c
f4
16
18
f4
11
1f
1c
f6
d8
10
04
f7
04
02
0b
08
e9
0d
f7
fd
25
de
25
1e
06
34
ef
22
07
09
2b
01
23
08
2f
07
1b
03
24
06
06
00
0c
1e
00
04
ef
1c
10
0a
fd
e5
f0
d4
07
ef
c0
ff
18
f1
ef
e3
ee
2b
ef
e9
eb
18
fa
ed
fd
ca
dc
cc
f6
0f
24
68
24
17
17
fd
07
d7
cf
f1
f5
f6
1d
0d
e4
07
1b
02
e7
fc
e1
0a
f0
f1
dc
fc
23
11
e1
0d
3e
1c
09
18
eb
10
28
1d
06
27
f4
f7
fb
12
f3
bc
dc
c9
d3
2d
f9
31
e3
04
19
f8
34
f7
fc
0c
0f
14
f6
10
08
0b
ed
fa
fb
f6
ef
c4
fb
18
0f
00
e1
d2
fa
f8
f0
ff
21
ff
20
29
29
0d
f3
06
f8
15
18
1e
38
07
ef
11
e7
f6
d4
ee
ec
f5
fc
dc
e4
e4
f1
01
06
fc
1a
0e
18
0c
e9
f2
f8
ef
f1
f6
04
1f
04
e1
d1
f0
1b
0c
14
22
2a
1b
e4
1a
0f
02
ee
e3
db
12
ed
d6
d2
06
16
f0
e6
fa
1a
46
f8
05
f7
f0
31
1b
ec
ff
e3
f7
fc
f0
e7
02
dc
00
05
0f
00
04
f0
26
1c
eb
08
fd
17
01
dd
53
15
f2
e6
1b
02
e8
15
de
e5
c3
fb
0a
ff
37
dc
d1
0f
35
34
ed
10
24
0a
f9
fd
11
ff
0c
37
39
06
fe
ee
ea
e3
0d
0e
da
01
02
fe
13
d6
f0
e7
0e
fc
08
01
f8
25
01
fe
10
1d
0f
ff
23
f7
eb
f3
14
01
c6
f1
f9
0f
b7
ea
f8
d8
06
04
31
e7
fd
ea
16
0b
ff
03
fb
fd
18
00
ee
07
e4
1a
0b
ce
f0
cd
19
26
e9
1e
1b
32
0a
e9
fb
11
10
28
06
e8
f0
eb
fd
fa
eb
08
42
12
f0
f9
49
28
04
18
f4
f3
e9
ef
2f
12
bc
db
12
ee
f7
19
ef
f0
fe
f0
f3
05
11
00
12
e0
2e
ed
1e
4d
19
14
fd
05
33
2c
07
1f
0a
21
fd
35
31
04
ef
02
e7
d7
23
e4
23
f1
f3
0c
ea
02
2d
fe
09
0e
ff
e0
f3
03
21
11
fa
fa
14
11
08
b0
c7
e9
1e
d8
f1
0c
05
0e
fb
02
02
1a
ff
10
ea
10
05
1b
d6
f6
0b
13
11
23
0a
10
f7
e3
fd
e8
0c
05
ec
d2
e8
0e
ec
23
f2
d5
cd
f5
d9
fc
f5
f8
16
f0
f9
c9
2a
2d
00
f8
00
42
2e
fd
f0
f8
28
fc
2f
f3
e0
f6
f4
18
fc
14
02
d6
fe
e8
13
22
09
ff
39
3a
08
fc
13
f6
05
1e
46
29
e9
ed
0b
ea
e0
e8
f1
fa
fe
ff
16
07
02
33
1b
fb
08
28
05
f4
eb
2b
2e
f4
f7
02
10
22
f9
ff
0f
07
eb
ee
fb
e2
cf
d8
c6
f3
1d
ed
ee
18
e9
05
14
e8
d3
01
fc
e7
e5
ff
f0
fc
ff
06
37
05
04
28
1c
36
39
18
1e
3f
16
15
12
06
f0
40
38
15
0b
e6
ec
dc
f2
06
1c
00
f2
d8
f9
44
13
f0
e6
e2
09
e7
0c
e3
f2
27
15
f8
31
26
2e
13
0c
0a
25
1a
20
25
11
0f
4d
38
00
18
04
da
25
fd
23
15
2a
27
f6
07
2a
d6
ef
00
f9
2f
30
0b
14
e2
0d
eb
eb
eb
d9
02
1b
0c
22
ed
09
29
0f
dd
da
0f
f2
d0
d6
fc
0d
1c
19
25
0d
0a
14
26
12
f9
1c
1e
19
f8
17
09
fd
1b
19
fa
0d
00
ed
f6
f8
f2
06
ec
04
28
25
09
e8
1a
e6
05
33
ef
e6
0c
06
da
e1
fb
f7
e0
05
c7
ce
0a
0b
19
05
1b
0d
1b
2c
bd
f3
f8
23
2c
08
04
c9
ef
06
12
fe
ea
fa
0c
eb
e3
f5
dc
e7
d8
d7
f2
d2
ea
fc
ec
e1
f3
0e
ec
fc
23
0c
13
f5
17
0f
21
1f
fa
f6
2c
2c
11
23
1f
28
0a
e9
23
1a
e4
15
19
21
27
e8
fa
12
11
d6
dd
e9
1b
14
f1
fb
f6
04
e8
02
fc
48
dd
ed
11
df
f6
c7
f6
fe
f8
13
e0
ec
ec
ec
e8
0b
f1
f9
0c
22
db
e9
00
21
1a
17
3e
1b
09
28
16
1f
de
25
2b
f1
f5
f1
e9
c7
df
c4
e8
03
f6
0e
ec
d5
0d
e3
f1
17
fd
1e
fd
eb
d4
fd
0b
ff
0c
24
ec
1b
16
f6
07
e5
0c
08
dc
0f
f0
2a
ed
ef
f8
fc
1a
df
05
f0
fb
0d
f8
de
e7
01
fd
08
01
20
e9
ed
ee
18
0c
fe
cf
02
02
3f
f6
fc
f7
d5
ef
04
18
fb
f8
34
11
04
2a
f6
dc
0c
f4
f1
21
d9
e8
07
0a
37
07
fa
0a
1f
21
ed
08
00
ff
ec
e3
fc
f0
ff
f7
f8
00
db
e3
e5
e0
e9
eb
e4
c5
01
f1
15
15
0e
13
09
1f
13
0e
f2
fe
17
d8
e5
e1
f2
27
05
16
01
23
1a
26
f9
19
40
37
12
15
26
20
10
07
0d
01
ec
cd
09
1b
ec
10
0b
f1
08
28
20
fe
15
02
fa
dc
da
d9
b3
c0
ef
e2
e9
fc
01
dc
26
31
36
11
27
23
2b
28
e8
0a
18
2c
23
3b
17
07
f7
1d
ef
e0
f5
fd
e9
f7
ff
f4
e3
e1
0b
f9
21
fd
07
e9
ea
09
12
fc
d2
b7
0e
f7
16
e7
09
23
12
fc
13
fa
ff
ef
e0
ca
dd
3d
24
33
31
0c
f9
25
0a
0f
09
24
19
0c
25
0a
fd
0b
0b
0c
0f
fa
f0
0c
10
10
0b
fc
2d
e9
ea
f7
f8
ff
d9
25
fe
fe
14
2c
24
ed
13
1d
f9
e8
e7
0d
05
e9
f0
25
ea
0c
10
0a
1f
3d
fb
c7
e0
04
0d
11
0b
f6
e6
0e
e2
0f
fb
07
fa
0b
f1
d4
ed
e1
fc
08
ee
e0
13
12
08
f5
0a
fa
ec
19
f2
fa
f2
0e
19
2d
11
12
fe
01
15
27
0e
1a
0b
13
15
0a
34
33
36
f7
09
06
2f
5b
f5
e6
f8
3d
f4
e8
04
d8
ed
d2
f4
cb
f5
f2
03
ce
06
dc
e2
0f
0c
ef
e5
f2
e1
13
2a
ea
0a
09
07
24
16
f2
f5
18
2d
d7
db
00
20
35
f9
03
03
12
45
22
38
01
17
37
1d
1c
d4
ca
ca
00
e3
f2
01
15
f5
e4
0c
1a
00
25
2c
fe
f1
0d
e8
e3
f3
0b
0e
09
14
0e
20
e9
07
f6
15
ea
f0
c7
d5
e1
ee
01
ba
e0
14
de
0d
fd
1d
2f
0a
e6
e9
09
08
1a
11
33
48
0c
f4
2c
0a
fc
03
06
26
e4
0b
db
02
00
16
f2
d8
fe
f3
de
09
f0
09
f0
0f
1f
14
39
2f
0a
0f
02
f5
1a
2e
17
00
26
00
1a
f6
f0
f3
fd
f2
ff
e9
d5
0d
f8
18
f8
21
08
02
ef
0e
06
29
0a
e8
03
1a
28
14
06
0f
fe
02
03
f5
f5
06
29
06
de
f2
0b
fa
0a
21
04
14
ff
1f
33
21
02
00
ef
de
d4
fd
14
13
17
d4
fc
0e
1a
2a
0d
c1
b6
d9
1e
14
c1
b7
9e
ef
e6
e2
ce
02
f1
d6
e1
ee
13
12
11
fd
f9
1e
1d
25
08
2e
09
f9
f7
30
07
20
00
11
18
37
07
d9
06
f3
1a
24
0c
da
09
1d
e8
2c
17
fa
fe
2d
fc
05
08
42
32
14
ce
1e
26
0d
e7
04
d5
1f
15
f6
0f
02
07
4b
29
08
09
f3
23
16
e8
e8
f6
fb
1b
fe
fe
e5
09
f9
fa
fe
f3
f9
23
e6
1d
0e
e8
32
29
0a
e6
fe
0b
f1
ac
bc
d8
f6
20
d3
bb
04
0a
ff
f2
e4
ee
2e
e6
0a
ff
12
1f
f0
f3
ed
32
05
0d
cd
04
29
4f
f4
fd
ea
18
f0
dc
c5
f0
0f
e7
00
ff
e1
36
2a
0a
dc
d4
df
1e
fd
2d
39
28
fb
e6
22
01
28
2d
f1
36
13
2c
2e
2d
02
21
37
09
09
0e
21
25
00
dc
ec
02
35
27
e3
08
e3
f1
08
38
d1
d8
e4
f4
f6
f5
ec
fd
e7
f4
e7
c0
e5
e8
2d
13
db
eb
db
ee
e6
05
0c
ec
f7
ff
e2
0d
fe
17
f5
c9
05
15
fd
33
01
f5
eb
ea
1f
0b
f4
eb
01
f5
0a
30
ff
f8
e6
fe
20
15
01
d6
09
fe
0e
23
26
07
e4
fb
13
0f
12
df
ee
06
1e
d5
e1
1c
0d
00
ed
d1
d4
f8
f1
f9
da
0b
06
e4
f0
c5
fd
f6
df
d2
ae
e6
0c
02
df
d9
fc
01
1e
f1
0a
15
fa
05
f2
f6
e8
f4
c4
d9
0e
0f
06
44
1f
e7
e7
fe
0f
17
fa
e5
f9
22
28
15
1a
f5
0f
2d
f8
fd
fe
17
fa
17
0b
c5
1e
f5
fc
e5
03
fb
ea
11
03
e1
ee
29
09
14
fa
0a
f9
06
0e
0c
fc
ea
0a
07
fa
2e
ee
f9
fb
fd
eb
10
1d
c3
f2
06
1f
f8
03
e7
02
23
30
1a
18
e8
da
cf
e5
f1
cb
fb
01
03
f0
f7
0a
c9
00
ef
25
20
12
e1
21
f0
15
0b
07
10
de
fc
00
04
07
fe
06
e3
21
20
15
f7
f3
03
f6
f6
f6
f8
0a
02
bc
d5
fa
e7
ee
c9
ea
df
cf
e4
ea
ed
cc
e5
e4
0b
09
f1
cb
08
e9
1d
2c
df
00
05
16
f2
eb
ff
18
f1
c8
f8
ed
fd
db
eb
1a
20
ff
eb
f4
2c
ee
1c
04
f5
16
0e
13
1f
20
3f
29
dd
c6
d5
f3
e4
d6
f5
fe
fa
15
03
03
ef
04
12
15
ec
f3
ff
16
ed
f0
fb
18
0a
1f
0c
f0
f0
07
f9
f6
ee
02
0d
fc
12
fd
f8
fd
32
db
f3
29
02
02
d2
fc
33
16
04
ef
fe
f6
e1
e2
df
d9
29
16
de
de
ec
22
f4
10
f2
f0
07
01
fd
f1
26
10
17
12
08
1c
19
0d
31
1d
1d
11
0a
1f
f5
0a
17
fc
ea
14
16
23
f0
1c
2b
19
0e
01
df
d6
e3
d9
d0
d9
f0
ed
c7
1e
df
0b
18
ef
d8
fb
e3
dd
05
03
05
dc
11
20
17
14
38
19
15
fc
06
ed
08
11
fd
df
f6
39
f1
02
d9
fd
35
f9
e3
12
02
f6
0c
04
fb
e0
f4
14
f2
cd
bb
0e
ec
0d
e6
fe
04
e2
fd
0b
e8
e7
0b
02
17
16
0a
3b
10
f7
f4
24
22
fb
0f
2d
0c
be
10
05
1a
f2
fb
22
f5
fc
f5
d4
04
14
f0
e0
d7
ef
d9
02
39
30
0c
d0
11
50
03
f5
da
10
11
e0
fa
ea
0b
0c
0d
fd
ed
e8
d7
ce
00
fa
06
f9
0e
10
21
1f
1b
e5
19
17
0b
ff
f2
1e
f0
2c
34
00
fc
01
0a
0d
d1
c4
eb
ed
02
1e
15
1f
10
f2
34
1c
1a
f3
d4
19
03
f8
da
03
1c
f8
f9
cf
fd
f7
02
17
e9
dc
e3
10
fe
fc
04
20
11
0f
30
2b
10
0c
0b
20
1a
0c
e2
19
20
22
f8
f9
09
14
01
c4
dd
08
1f
1b
d8
ec
01
dc
f8
f4
ca
11
ed
df
d9
d9
dd
f9
d5
fb
17
ed
c4
25
36
30
ce
de
dd
16
1c
f1
d3
c1
f4
da
e4
e3
f2
fb
21
02
ed
f5
e4
07
fd
3a
06
e5
dd
25
f7
f3
f7
e7
09
0d
fd
d2
ea
f8
dd
c5
f4
e3
f1
ec
b6
e5
f9
06
0d
f4
d8
ea
33
34
0c
da
ac
07
0a
ef
bc
d7
f6
0e
f2
22
1b
03
0e
14
08
08
fa
f8
0d
ee
c3
17
2b
20
ff
d7
e6
fa
ef
f0
fe
e6
e0
f9
e5
00
f2
f7
fb
07
19
be
d4
e9
e2
e5
d5
eb
1e
d1
02
0a
0f
12
01
fe
fd
e4
f7
0c
fc
f3
0b
22
3e
25
d2
0a
fe
0c
e9
f0
0b
0d
16
bc
1d
f0
0c
cc
bf
d1
f8
fd
f9
03
dc
fb
0a
2b
21
e8
f1
2d
45
21
14
11
e1
0e
1f
02
d3
dd
19
12
0b
f8
fc
17
18
06
0a
0f
f8
00
e6
02
f6
f5
00
fd
24
13
b3
9a
05
ff
21
ca
cc
e7
d5
d2
e8
f5
f7
14
e2
eb
f7
da
cd
d9
14
3a
03
e3
e9
fe
02
ea
09
07
14
0d
fd
e2
20
1f
02
ed
2e
42
ff
ed
0c
01
ce
d0
da
2a
06
d8
d2
ea
1a
39
e8
da
e7
c5
0a
0b
f8
07
de
0e
f2
fd
0f
23
1d
12
0c
0d
f6
f5
06
1e
1b
fc
fe
f0
31
15
09
e9
ef
d2
14
15
0a
eb
0a
00
e6
d9
ea
db
e6
e8
e7
f8
ef
1e
e6
f0
c7
0a
eb
f6
05
1a
06
f4
03
13
00
e5
15
14
0c
36
1e
db
1c
e8
e6
fa
e5
fa
e3
ea
fc
03
10
e0
cd
ee
0d
13
e7
f2
04
f2
07
12
04
e4
a6
12
13
eb
da
ee
f3
e0
e3
e9
0e
0d
fd
d8
f8
00
f4
c1
07
f9
14
ed
fa
e8
e6
fe
d2
08
e1
f4
de
05
0c
ff
f5
01
0e
17
fa
08
f4
09
f9
1d
fe
04
01
25
17
13
e5
32
27
27
f4
11
1d
fd
fe
df
d9
c7
e5
ee
f8
0c
01
08
ef
ed
ea
ee
c9
ec
07
06
d7
c7
f3
09
26
df
e8
1a
26
f2
de
0f
3b
27
04
11
fa
0f
f3
ee
08
2e
11
e8
f6
15
29
1e
16
06
30
39
22
f8
09
e3
fb
14
dc
ed
db
07
e6
d1
d4
e3
ef
0f
0c
fc
e4
0b
30
df
cf
11
37
0c
0f
dd
1a
26
12
2c
21
f3
1c
1a
39
25
f6
35
fb
1c
f0
2f
34
f9
15
00
28
05
02
02
f6
da
f0
f4
1f
07
f0
08
0d
f4
fb
ef
11
1f
16
fc
14
db
e9
f5
da
0a
c3
07
db
ee
06
e0
cf
02
f2
12
ef
fa
12
33
0e
f4
01
07
e5
1a
ff
33
18
f1
ee
e7
30
ea
ea
08
0e
0d
fe
f3
f2
10
fe
13
1c
0d
e4
05
09
1c
01
f9
ea
e2
12
00
f3
f0
f5
e3
ff
07
23
fc
ef
00
1b
07
0a
fe
01
1b
07
ff
e2
f7
f1
25
fb
c5
18
06
3d
f0
03
0d
11
14
f8
0d
fd
07
03
14
2b
01
aa
cf
ce
fa
da
bd
e0
b2
fe
d1
e5
e2
f9
ea
ef
0b
f3
1e
fb
ef
df
f7
24
ff
eb
1a
00
e2
d6
19
21
0d
ef
c7
2c
18
fa
d4
e2
14
e7
f0
f3
ed
dc
dc
11
0b
02
16
fe
de
e0
03
e9
ea
c2
0a
0b
00
f6
1b
2c
27
17
fc
21
08
0b
f8
02
e6
f7
f1
c3
e5
e8
0c
02
ce
e6
cb
0d
e5
f2
e0
f1
f3
f4
fe
f4
f3
0c
fe
e1
da
02
0e
e3
e9
ea
1c
0d
03
01
0c
0e
ff
21
05
44
09
ef
f8
fe
f8
19
11
fd
d2
fb
fc
d4
dd
1f
fe
0f
d0
d7
4a
09
0d
f9
e1
26
f4
02
d9
08
f4
ed
e3
d0
ec
fd
02
02
0d
06
04
ec
1f
1b
ec
f5
fe
1d
24
17
15
06
0d
3f
3a
29
24
2a
35
28
df
fd
fd
ff
13
10
09
cb
d0
08
f6
dd
f3
f9
04
26
ed
14
e5
e5
f7
d5
e7
8e
af
01
14
0d
f9
07
e0
05
17
14
10
0d
0c
f7
1e
f7
05
e4
eb
fb
cf
f5
ff
00
0b
04
f9
f8
e8
ed
f6
ea
d8
df
e3
f6
14
ee
e0
eb
03
f3
ed
f2
f2
f1
08
e3
bc
f7
fd
13
ee
1f
e9
24
de
f4
e9
10
fc
da
f8
dc
e6
ea
fb
e7
c1
e0
07
08
fc
e6
e2
16
fc
c0
da
f6
ef
ea
e5
c3
b7
f5
08
fa
01
e2
04
11
f9
ef
ce
de
fc
cd
d8
b3
c3
06
ee
0b
0a
fd
12
fc
c6
de
00
0f
03
07
12
17
00
18
23
fa
1d
db
fc
01
f1
d7
e7
f5
f5
21
f1
f4
ee
00
f1
0f
f2
d9
e7
07
ee
15
05
24
01
f3
fa
0b
27
10
f4
02
dd
ea
04
e8
06
15
14
1b
fe
0d
24
f8
ea
fd
f6
cd
bc
b6
ce
f8
e7
e7
fd
09
3a
0e
00
07
e0
e3
dd
e7
f2
04
e2
e8
e9
b6
fe
0d
25
19
c5
f8
f3
f7
e1
cb
0c
f8
01
d7
d5
d4
04
15
33
49
f7
05
07
16
48
ea
e0
2d
16
38
0d
f4
0b
26
1b
0a
31
10
1a
f4
1d
e0
d0
f5
f4
0e
f1
c4
ed
16
0a
24
0b
f1
30
20
01
03
e1
dd
f3
00
f3
d8
d5
01
f8
f9
19
1b
08
0f
01
f6
1a
0c
f9
e0
0b
0e
e6
fe
f2
15
fd
20
09
10
f9
db
02
12
1a
2c
d5
cf
07
1a
3a
e5
0c
fa
14
e9
07
e3
1f
11
1d
1b
e8
26
11
29
f6
15
17
24
1f
f3
ea
ea
0c
2a
10
cb
ef
e0
eb
f6
bc
11
d5
d9
f1
f5
2a
f0
f5
29
3f
f8
f5
e6
dd
11
ec
01
1a
20
24
f2
e0
e9
cd
dd
da
d6
d4
01
f1
fe
e1
ff
0e
13
15
f5
f9
d4
e2
fb
09
ce
de
e3
07
29
05
15
0d
1a
11
01
15
0e
10
f9
09
e0
fb
0c
ea
0f
da
e8
c5
ec
0e
1e
05
ef
ed
f2
f2
fe
c8
1e
f3
e0
cb
e9
f9
f8
f9
1d
09
20
17
2b
1e
3e
e5
e3
04
29
44
31
f7
03
c7
05
00
f3
07
ee
15
ec
f7
13
0f
e7
fe
15
07
dc
f1
df
f3
f7
e3
01
e5
fe
f1
d9
c1
dc
f1
df
f5
d1
cf
f3
f2
de
f6
fa
01
05
fc
fa
d0
fb
27
1e
0d
01
01
ff
ed
37
04
f3
f9
00
e8
e3
e7
0c
1a
02
0f
f9
f9
de
f7
fc
06
1c
12
02
26
08
11
0e
df
eb
fa
ef
f9
f3
e7
f5
17
04
08
0b
e8
e5
0b
24
20
fa
fb
08
12
f6
ef
0d
2c
29
2d
38
08
21
10
ef
19
fd
27
f3
f9
e1
f0
e9
f0
f4
f6
23
24
ed
e4
d7
f0
f6
ef
12
c8
de
03
ed
19
0a
e5
27
21
fe
0a
2a
2b
21
f9
2a
14
02
e0
25
1b
19
f7
de
eb
12
18
0c
02
fa
f6
ff
20
ed
1b
f8
01
05
01
ed
05
17
f6
e0
fa
0f
de
ee
05
fb
cf
f0
ef
00
0c
07
e6
e4
05
cf
f0
c9
da
db
e9
1b
d9
14
e7
f1
01
f7
0f
28
3c
38
f7
0d
23
31
0b
17
f6
05
26
fb
e5
c7
e6
1f
1a
17
d8
ff
e5
1c
f0
09
fc
07
30
d9
01
cc
05
0c
eb
04
0b
fa
02
f6
0e
ef
26
db
d5
0d
d7
26
20
27
12
e0
d4
0e
13
f6
f8
01
1d
20
23
fa
14
1e
29
0f
02
28
e9
02
0c
00
0f
13
ff
0e
16
3d
0a
09
0b
0e
1c
0e
f0
e9
fc
ee
07
1c
1c
f3
05
08
f5
eb
f1
05
00
e2
e9
be
ae
db
ed
eb
ef
d9
03
03
fa
11
f5
fa
0d
32
e7
18
0f
fa
f9
d0
ee
b1
10
00
bc
d9
0c
0a
f9
f3
17
f9
f9
07
f4
00
11
04
01
e2
ff
d6
06
f2
e6
e7
f6
12
f8
e8
05
f0
fe
1e
0d
d4
c4
01
0c
00
e5
ef
ed
ee
d2
ca
0b
dc
f9
15
d8
ec
08
16
f3
02
05
08
0d
25
e1
fa
fc
0c
18
4e
42
2d
23
59
49
4c
1c
11
59
54
40
10
23
36
3e
ff
f5
ef
05
fe
fa
0b
03
29
db
17
0e
23
07
f9
e8
30
00
04
ce
e1
19
11
fc
d7
e3
09
26
fd
e1
02
0a
20
f8
08
16
11
fe
ea
e0
f4
01
f4
e9
c0
fa
02
f3
f2
d8
e4
e9
f1
c4
db
e1
cd
e4
ff
12
fb
e7
ff
f9
f0
eb
03
12
10
1a
f0
fd
02
ff
05
0b
e9
ee
ff
f0
fc
0f
ea
d5
1a
f2
db
ec
23
2c
2c
08
d9
38
2c
0e
f9
0e
13
35
35
c3
02
fe
0f
0d
d3
e7
18
03
11
23
13
17
03
0f
be
11
1d
e9
d9
ef
16
18
ff
ef
09
0a
f4
14
03
e9
f2
08
fb
ff
00
00
ff
ca
f7
f8
00
c6
e6
de
cf
d8
d9
bc
b6
c0
d3
e4
bb
db
e8
f0
19
fc
04
1e
1e
19
09
eb
02
ec
11
f9
f8
02
22
30
20
02
0a
ff
1b
15
12
fc
f2
02
1a
3b
2f
2b
fa
26
31
25
31
1d
01
0a
0d
10
19
52
0d
fd
04
d3
1f
f8
f1
05
04
06
e9
e0
0d
01
0b
e0
17
e3
f5
e7
c6
fa
1a
f7
08
00
f9
13
11
fe
e9
ef
f4
27
28
08
0d
0e
eb
ff
10
29
e3
f6
39
38
02
ff
0e
06
1b
2d
06
0b
ea
ef
0d
fd
26
11
0e
02
f1
33
40
05
07
fc
22
41
09
e4
fb
1e
36
1f
eb
13
0f
1e
f8
0d
ff
28
1b
14
02
0c
e4
fa
0a
1a
14
cc
f3
01
1b
0a
b7
cc
d6
15
07
eb
f1
d5
34
39
fa
de
09
10
0f
f0
08
16
02
f3
e4
e5
e5
f2
1a
eb
c0
0a
e9
fd
05
1e
1e
0a
06
f5
db
fa
fd
f8
16
08
07
1c
10
f0
24
00
1c
fb
fa
1d
06
0a
e4
18
f8
f1
fa
0b
f5
03
02
e9
ea
cf
c3
dd
de
e2
e7
bb
c5
ce
e6
f8
07
13
01
00
08
10
fc
fe
30
f2
1e
28
3b
27
00
f7
1a
14
f9
40
fe
02
0e
03
38
28
fa
fb
fb
01
f7
fc
f0
fa
f8
e7
f4
ef
fc
09
e4
b6
02
0a
24
f2
df
e1
07
ec
fa
e0
e8
1a
f3
dc
fa
ed
f6
e5
06
f4
28
07
de
da
fc
f6
bb
15
c8
fe
d4
fa
f3
d2
fa
07
20
f5
f5
e4
21
3b
f0
e3
e3
ee
ea
e2
f1
f0
f8
06
ff
11
f7
ee
fe
1d
f1
eb
f4
11
10
10
f4
08
f3
d4
e4
01
0b
e2
f1
09
14
f9
00
14
f6
00
1d
fc
26
14
30
16
00
0a
1e
1d
02
0b
05
fe
fa
f6
fd
f0
e9
fa
01
f8
e3
c1
e7
e5
08
08
e6
ca
e9
f7
07
13
f4
f3
2a
10
01
0b
ef
f9
14
03
fb
f1
ff
10
f0
04
15
ea
d0
e5
f6
ed
fd
ca
cb
e9
f8
13
03
08
f3
00
02
fe
2c
e7
e9
e2
d6
05
18
1c
06
24
ff
e1
0c
27
0d
03
f5
08
1c
0e
1a
27
3c
26
17
f0
34
48
04
13
f8
0e
db
e9
00
46
0b
da
1c
ed
2e
fb
0f
17
03
f1
f9
05
10
e3
ee
e5
df
e7
ff
18
f2
c6
f2
08
0f
23
15
f9
11
04
07
27
17
03
f4
07
0d
0f
35
24
16
0b
fa
f7
4e
35
20
fd
f8
21
fd
f2
0f
e9
d6
ea
2b
05
09
04
0f
fa
07
04
12
ec
f4
fe
22
4b
00
02
01
34
59
25
ff
04
19
07
0e
e2
f2
1c
00
0d
f4
07
09
e2
e6
e9
e6
1a
15
f9
ef
d5
c3
cc
ea
03
ed
de
fd
f4
07
fd
04
dc
e8
05
0d
23
f5
d8
ef
07
0c
e9
09
fd
11
f2
c5
1e
30
05
ec
03
14
0b
04
14
fd
f6
14
34
e3
e9
02
eb
fa
fd
cc
ec
10
ec
19
ff
27
04
13
f7
fc
1c
07
f2
f4
ca
e7
02
e1
20
0d
d9
0f
e8
3a
3f
3c
47
4e
f2
32
df
06
fa
05
d9
ec
e0
f7
1f
32
f4
e9
d6
3f
11
05
2b
fc
e7
fc
ad
cc
fc
d9
c3
cf
dd
ee
0f
08
1c
09
f4
ee
07
fc
12
f4
e5
16
10
07
f5
e0
25
ed
31
10
f3
23
15
f4
18
13
e7
d9
fc
fc
1b
2d
ef
cd
01
19
e8
fe
0b
0d
dd
e3
27
2a
f8
13
12
ec
03
ee
f3
0d
e7
e6
dd
ff
ef
25
1a
d9
14
0c
01
f7
02
36
24
30
46
28
fe
05
0b
f8
01
db
fd
e1
f9
09
fe
ec
04
16
11
0e
15
ec
ec
e7
23
30
42
26
fa
03
fd
0f
2d
2c
d3
eb
0d
eb
fe
1a
01
fd
e2
ff
1b
0b
f6
cf
f4
28
21
d0
14
f4
f0
db
ff
1d
02
c4
f2
06
0b
0c
0e
0d
e1
f0
d4
f8
05
47
45
2d
d9
11
15
fd
18
00
ed
11
cf
c3
43
3b
19
0f
0d
f0
07
05
ed
24
17
de
e5
e6
fe
08
e7
0a
f3
d6
14
f3
00
4f
ed
e0
fa
f6
08
fc
0a
19
0e
f4
ff
f1
0d
fe
d6
04
ca
03
dd
f9
f2
05
e1
f6
0f
e6
2c
0c
f9
ef
07
fb
f9
08
15
1c
f4
0a
ef
f3
ca
ff
0d
3e
33
25
16
fc
1d
0d
19
09
01
0d
fb
e9
03
2e
20
10
08
fa
2a
51
1f
2a
db
e1
bd
c0
da
18
e4
fc
08
f5
21
1b
0c
0f
1c
09
04
10
1f
0a
19
24
07
ea
18
fc
06
e5
e6
01
ee
ca
cc
f2
fb
05
06
f1
0e
13
19
00
dc
fb
e1
08
37
35
2d
30
d1
f9
e6
fc
f6
ea
e2
e9
d3
c9
38
2a
f5
fd
0d
fa
10
06
14
0f
f7
1b
2a
e7
14
d6
3c
1c
21
1b
e6
1d
d7
fe
e5
06
02
bc
11
0d
bf
ee
20
0f
f5
1a
ec
08
36
26
04
45
16
fb
ec
1b
3a
0a
ea
1c
25
fc
d4
11
0c
1b
15
c9
e4
1a
08
0d
d4
a8
e6
1a
02
d1
ca
e4
0e
e1
04
0e
08
d1
c4
1b
fd
fc
0e
ed
07
1b
0c
e5
0c
06
e7
cd
d7
b9
de
29
1e
ce
e5
fe
f4
ef
fb
08
d6
f0
0c
12
e7
ca
eb
0e
35
29
c0
ca
08
27
e7
16
ce
0e
0d
f1
c4
00
2f
ec
d0
f2
2a
1b
eb
ca
d8
15
f4
11
d5
f9
d7
f0
0f
f7
f5
e5
f4
1b
f8
fb
f5
21
cb
e3
ea
e9
e7
44
fc
c2
cc
00
1d
0f
f0
e9
02
10
0f
dc
d6
eb
e4
d1
de
f3
10
df
d2
09
0a
fa
1d
ff
ec
f1
fc
11
e9
ff
28
0b
f5
17
c0
20
f7
e6
f0
32
37
f4
e8
09
19
f4
ca
19
10
ff
15
00
3f
18
c4
f6
e8
03
13
14
f5
fd
ee
ee
0d
fa
fd
e4
fc
1c
0a
e1
f9
04
1f
06
03
f0
2c
fa
fa
da
f3
f3
f3
21
09
f3
00
e8
0f
e2
3b
f5
d6
c9
f8
0e
ee
e2
09
14
1e
e9
f7
f6
fa
24
24
f8
f6
00
0e
da
f2
ec
fb
ed
23
f2
c7
ec
be
f8
46
22
1a
be
f5
4c
2f
03
13
06
15
ea
04
0d
1e
23
e5
35
f7
47
15
eb
2e
0b
ff
0f
e9
1e
1a
d6
1c
c4
1e
2f
03
f7
b5
08
14
fb
04
22
1d
f1
f1
e0
19
18
f4
ff
17
17
ff
17
16
41
0b
07
14
f8
01
ec
23
16
16
e0
f9
f3
16
f8
d2
09
1f
ec
0b
11
c4
e8
f0
01
0b
f0
fb
08
09
b7
fa
02
10
05
e7
30
15
3d
1e
09
17
0a
0f
0e
fb
f2
ee
06
f9
ee
b9
d0
15
df
29
ec
17
07
07
f4
dd
d5
fa
c3
e5
02
49
4b
12
dc
ea
14
ec
07
f5
1e
01
fb
d9
e8
14
ea
f1
ca
07
49
14
c6
fd
1d
de
f2
f6
20
0e
0d
1a
eb
06
f9
1b
0d
fd
ed
d3
09
11
ff
cb
e4
c7
b9
dc
cf
e5
e5
1b
1a
ea
1e
fc
0a
fa
c7
0a
08
17
f2
d4
cc
f8
22
0e
14
03
0a
28
16
10
0e
2f
e5
f7
06
25
11
f1
14
2b
48
0a
e8
0f
49
49
fa
0e
1e
32
22
46
2a
0b
18
07
16
fa
08
0e
11
27
08
f7
1a
f6
1f
0c
11
d3
ee
05
2b
f6
e2
28
49
1e
dc
f2
ee
e2
01
0b
0e
2e
03
01
f1
04
e8
e3
e3
13
fd
fc
ef
0f
11
da
03
03
f2
06
1a
17
2c
03
23
20
10
e7
f7
ef
09
f9
11
f4
f0
ef
df
03
fd
f3
0d
17
19
11
12
30
37
12
0d
10
37
f7
f5
e3
f4
e2
d4
f9
14
07
ef
17
17
e9
0a
07
ff
b9
d4
15
f7
e6
ee
ec
fe
2c
0d
03
14
1f
f0
27
de
f7
fb
07
39
e0
0e
0e
2f
f8
ca
f9
2c
20
f7
1c
05
de
e0
09
e3
e3
fa
f2
fe
f4
e5
08
08
0d
f6
e2
e8
ff
e4
06
28
bc
ea
00
ff
d5
12
0f
f5
02
06
1b
05
e4
f6
00
0a
04
08
28
11
13
1d
f1
fa
17
2e
f5
1f
2c
22
f2
0a
03
2b
2c
04
0f
0e
10
fe
32
fb
16
f9
ed
0c
39
c5
e8
0d
f7
f2
dd
0c
f9
12
22
da
1a
06
12
fb
da
d6
02
e9
14
fc
07
d6
df
03
ce
04
d2
ec
fa
09
27
1c
fb
05
00
11
f9
fb
15
02
18
e5
f2
fe
33
02
f1
eb
e5
08
2b
22
ed
e4
d7
d4
c2
10
1c
e5
f6
f3
10
f9
d3
1d
f6
13
fd
00
30
fc
fe
f5
2b
ec
0a
f9
f3
f5
02
2d
00
cc
fa
f0
fe
02
de
1c
1c
f7
ea
2b
0d
e1
20
dd
f4
2f
72
54
ce
0d
1a
0a
ef
09
e9
f0
f5
cc
07
f4
08
fd
0f
f9
dc
24
ec
08
d4
0f
2e
da
1d
1d
27
1d
f6
08
e8
ec
03
1b
16
e2
2a
e9
e1
e0
04
2a
33
e5
e1
18
05
fd
d8
15
0b
d3
f4
1f
06
fe
3e
25
f9
e7
2d
22
1f
2c
0d
06
f0
d1
08
31
d2
fa
02
2d
ee
00
ff
04
03
f0
2e
e6
d8
01
02
ef
d5
f3
f1
22
d5
f9
15
1b
3e
e1
00
29
19
dd
1c
0a
16
f5
16
08
3a
35
16
f1
f5
2c
38
1a
23
0f
d6
e7
22
01
0b
07
fb
f3
1d
03
17
e8
19
1c
1e
ed
ef
fb
17
f8
0d
0f
f0
bc
f4
06
31
26
fe
ef
fd
00
fc
d5
fd
12
15
f0
e9
0e
5d
37
09
ec
2f
05
0b
1b
0a
fd
f4
d7
1b
19
ec
f4
00
1c
02
ef
1c
24
f2
f3
d1
2f
36
eb
dd
23
f6
ef
15
e0
0e
05
e1
f6
03
0a
f4
dc
f8
cf
fa
1f
07
de
f0
14
f6
0f
f8
f8
31
26
0d
f6
e8
25
13
39
1c
04
16
ff
fa
01
fb
f0
02
06
e8
c3
1e
eb
05
04
0e
e4
d7
f5
f9
23
d1
08
ee
f7
de
06
0c
23
f9
fc
f3
f9
f4
fa
2b
0c
1d
0c
fd
08
1a
02
fd
f6
b5
38
11
35
21
46
08
d7
01
4e
0d
ee
f9
00
07
e8
08
bc
cc
cf
0f
fb
a8
0c
f3
ef
f7
0c
fd
f2
d4
0d
0b
c9
03
09
e0
d9
d5
fb
0b
e1
06
14
e4
d9
19
21
1c
f5
e2
13
2e
ef
c9
03
dd
da
17
05
ea
e6
e0
26
f8
cc
f7
f4
ec
ed
fd
e4
e6
e6
ea
00
00
ed
11
ef
02
fa
14
23
2c
ec
05
f5
ec
f4
ee
d6
11
ff
e7
02
04
eb
e1
f1
f2
ff
f0
02
f8
2f
f3
de
e4
0e
17
fc
ed
1b
16
25
1b
e8
ef
01
0c
dc
cd
13
2b
47
d0
f8
e7
ea
04
fb
25
22
f8
d7
11
f8
fe
fb
1b
26
48
0d
f4
d7
34
08
e1
e0
13
ee
d4
dc
f1
ea
f7
0c
35
21
dc
05
3d
f6
13
d6
d8
e3
07
05
de
23
33
2f
15
06
0d
30
fb
db
0d
07
3a
2e
0d
04
13
ee
df
ff
0a
2d
16
f6
d1
f8
0d
eb
d4
de
0b
0b
dd
c8
04
06
e0
f1
e5
dd
ed
dc
d7
1d
07
ea
04
ee
e8
04
f1
e3
e2
c3
c3
e4
da
e6
1d
26
0d
ea
fc
14
e7
f1
fc
f6
e7
02
ff
e2
d7
d4
d7
e4
11
16
da
cb
06
0e
fd
2b
cb
0d
f0
dd
d9
03
ce
e4
dc
05
01
f3
dc
b3
af
fa
03
f6
e9
e3
f0
ea
25
14
10
0b
01
1e
05
d0
f4
1a
f5
f7
08
d3
00
34
0c
c5
c6
f4
e4
ed
f0
ed
02
ef
e6
ed
0e
0f
d8
e5
d1
d1
0e
db
00
06
04
fa
0b
18
f7
02
e5
08
f2
01
1c
14
d7
d1
e3
34
1f
da
f5
1e
0b
0e
0a
ff
ea
21
fb
14
02
e4
ea
fd
0f
14
e9
e6
ec
e5
04
2a
11
19
f0
10
03
08
05
0b
27
f3
e2
e0
f3
f6
1b
0d
06
fa
1d
f5
0e
f7
25
e9
e4
e7
e6
12
eb
da
10
f8
01
cd
d9
0c
f3
f9
ff
de
f8
f4
03
15
f3
f4
e9
06
04
16
0a
1b
04
05
d8
0d
44
f7
26
d8
e2
e8
cd
07
0a
12
eb
e2
dd
31
18
e4
39
f0
31
f3
04
37
30
06
19
11
0e
3c
eb
0b
02
f1
0b
05
0a
03
0f
00
ee
e8
e7
0f
f4
15
f2
12
fe
fa
fc
23
f9
e8
cd
e2
10
04
de
e4
14
14
23
10
fd
0e
dd
ea
06
e4
2b
ec
e9
e1
d9
0c
e6
fb
fa
d3
ef
13
2e
dd
09
1b
f4
df
f0
13
fb
f8
16
07
f2
e6
1b
0c
18
1a
27
16
16
15
00
16
18
27
16
03
f5
f4
f0
11
ba
04
c8
d1
15
ec
f6
ef
fc
13
f0
f4
da
cc
d2
b5
1e
08
18
0d
05
f7
ee
15
d8
f6
ed
16
49
ec
be
f9
0a
e7
c6
c8
ff
1b
ea
cf
fe
0d
0a
e6
1c
f9
ec
01
03
de
e0
e7
02
30
17
e7
e3
03
0a
e7
f6
dd
e5
e5
f7
11
1c
f7
de
e5
ea
00
0f
03
09
33
1d
ff
f5
d3
26
2e
e9
f1
0e
f5
18
36
0b
37
40
2f
2b
0c
14
25
04
f1
16
f0
15
30
37
f1
17
d5
f6
fc
f0
3e
0b
2b
13
09
e4
e8
f0
0f
04
0d
23
36
22
18
d0
d0
3e
1d
df
e9
06
e9
23
0b
fc
25
42
20
06
00
13
d9
04
02
56
46
0d
1d
00
2d
0a
04
05
0b
db
01
0f
ed
eb
de
fb
37
06
df
2e
40
39
3d
0f
d1
f7
0c
2a
1f
0b
03
12
05
e5
fe
0a
11
f5
df
14
15
1c
40
f7
1e
1b
15
25
1d
01
05
ef
f3
1d
01
07
ea
06
f7
0f
1d
34
e1
d0
ff
d1
fc
eb
f9
08
ed
0c
14
ed
12
17
0d
09
0c
1b
17
f1
f3
f6
07
0c
10
de
fc
e2
c4
01
df
f9
02
f9
0d
ff
1e
01
f4
da
d9
0b
00
e6
20
0c
f7
d2
ee
01
22
1f
1d
2d
31
13
0c
db
2b
2d
09
07
e7
11
08
fa
f3
11
fb
fe
07
0f
10
0e
fb
05
de
cf
ce
00
fa
ff
1b
e4
2a
10
2d
4b
31
fc
1b
0a
5e
10
f0
13
fb
e0
f5
e5
f0
16
e0
df
e9
c5
e9
e1
e2
f8
fd
ea
01
fc
0b
10
1b
03
e7
fc
24
0c
02
e7
10
fc
ff
01
26
e6
f7
ff
2b
3a
14
08
09
fd
26
12
00
db
00
f5
16
21
11
2d
ff
a8
f8
28
fe
14
18
fb
24
d9
0a
e8
e3
fb
ff
ec
0c
25
22
fe
ec
fd
0f
07
f0
f0
01
0e
e4
f0
f6
02
f3
13
f4
d4
c7
e2
10
03
14
19
fa
ee
02
19
1e
1b
f4
f7
e6
d4
12
34
0c
28
35
1e
33
08
1d
ec
e4
12
e0
18
0a
fe
e7
20
22
08
ee
c4
06
31
fe
0e
17
02
3a
07
04
fd
3c
15
1a
17
15
06
07
04
e3
da
c7
bf
fe
c9
af
12
fa
27
ea
f1
10
f3
f1
eb
12
01
05
15
18
19
e8
e6
fb
15
f6
35
2e
1d
31
37
0d
0d
e2
25
1d
c1
12
12
0e
33
2b
06
f8
f4
dc
31
18
ea
ff
28
12
13
f9
e7
1c
bc
f7
13
04
21
e6
eb
10
09
f4
24
00
1b
08
14
f4
ff
fe
f0
09
eb
11
39
2d
24
f2
f6
06
15
fc
01
13
21
01
f3
05
29
f5
d7
ef
e1
fc
e5
fa
05
06
f3
f4
24
fc
00
09
20
31
1c
f1
10
42
20
da
0b
24
21
d7
da
ef
fd
0e
16
0f
f7
32
25
2f
4d
0f
08
e1
18
24
f8
fb
11
2d
1f
11
0f
03
de
d4
c7
dc
e7
f3
d9
fb
1c
01
1a
09
11
f1
c9
f6
04
eb
e0
d0
df
f1
15
ea
df
e7
c9
d9
f2
04
e8
08
14
09
f4
eb
20
17
36
33
22
20
f8
fc
fc
1b
ec
ff
ed
02
d3
c9
0b
14
fe
17
15
11
f0
de
ee
ea
d4
eb
fe
e8
e1
29
25
1d
e8
df
06
1e
0c
ff
20
f5
f1
03
21
ed
f6
ed
01
12
20
33
13
f1
43
4a
e9
06
33
64
0a
ff
02
f8
28
fc
09
f4
d3
c3
dd
fe
eb
e5
cb
e2
e9
dd
e5
06
eb
ee
fc
ee
f6
03
f6
bf
00
0b
f9
da
ea
dd
d9
ed
eb
0f
2d
0b
25
03
08
22
05
0e
f4
e4
09
0b
f0
e0
fc
fc
ef
cf
13
2c
2a
0d
fb
dc
d5
f3
d2
e8
0d
fc
ff
dc
f5
39
15
17
13
f5
fa
05
f3
f9
17
f6
f3
0d
f6
0a
08
06
19
0a
f7
00
d8
01
f3
15
e5
fd
03
e9
ff
e9
02
0c
28
0f
f1
f0
0e
02
36
eb
e7
07
1e
27
db
07
03
f2
fa
1b
40
30
0e
04
f7
0a
1e
ef
f4
e8
f3
17
14
f3
0a
37
0d
21
17
28
11
ea
ee
ed
fd
18
19
f6
ed
31
1f
ef
0c
e2
01
ec
f4
11
e4
f9
15
fa
fe
13
13
02
09
1b
01
19
fd
06
25
24
07
df
e4
f2
fb
f7
3e
02
2b
0f
17
1a
10
da
0f
06
fe
01
e3
f8
f0
ed
e8
fa
19
1e
e7
f5
0b
c9
13
f9
ef
01
fe
12
ec
08
1a
ed
ec
0a
04
1b
0e
f8
fe
00
04
05
13
26
22
1d
16
1a
0e
17
0f
07
e2
f9
1f
00
01
f8
cd
f2
fe
28
01
0c
d1
f3
ed
1d
11
41
1b
1f
17
2a
11
0d
15
f1
25
23
00
f7
ef
de
1f
f8
ec
06
0a
fb
f8
eb
15
03
de
c6
bf
fd
41
30
27
34
06
e0
fc
01
f7
fc
de
dc
e5
e5
01
12
0d
04
f8
e4
f7
ea
fd
ea
f5
09
28
f6
03
0e
30
34
fe
f0
30
0e
fa
fe
db
f0
e6
05
fa
f4
05
fa
e8
ea
d6
ee
f4
06
e6
06
12
2a
3c
1e
f0
23
31
0d
09
f8
f4
e0
e5
e9
e3
e4
12
e7
f0
cf
fe
0a
fe
10
fa
ec
d4
d5
d8
de
e4
0d
13
f3
f5
12
2d
ff
f4
e4
1f
03
08
16
10
f7
18
fc
02
fa
36
23
14
18
32
18
0c
f5
ea
fa
fb
ff
12
0c
f1
fc
fd
e6
ec
da
ef
d8
c7
ec
c9
e8
30
03
f2
1a
02
29
e8
12
0d
0f
ed
e8
33
eb
22
0c
fe
fa
11
fa
06
18
ed
08
2f
47
20
33
28
f1
f5
d9
ee
db
df
c9
fb
e6
18
e6
ee
0a
f8
02
e9
e9
ed
f5
ee
e1
be
e7
1e
0f
e1
e6
23
1a
2c
21
1c
18
2b
f9
df
13
28
1f
2d
fe
ee
07
01
1f
1f
03
fa
16
0d
0b
e6
d2
ed
12
e0
cc
f8
f2
20
ea
1d
22
1d
33
fe
0e
ee
0f
0c
cc
dd
dc
03
f6
d3
cd
e1
e9
13
01
34
01
f1
ea
00
0d
14
23
37
09
09
2a
0c
10
e4
fb
e6
00
db
e8
01
f6
e6
ed
08
10
10
1d
dd
e3
09
f4
2f
fe
ef
ef
f2
fb
dd
ea
ef
13
e5
f3
1b
ed
03
05
11
08
f5
e8
db
de
05
05
f9
1a
ec
14
1e
4c
1c
ed
10
22
0b
23
3d
f0
05
d7
06
dd
0f
12
06
11
33
02
fb
0b
f1
e9
1e
f9
f5
fc
24
f1
e4
dd
d0
fa
bf
d7
12
f1
02
0d
f9
11
12
f1
e7
0c
26
fc
01
03
31
11
11
0c
f6
ff
07
0f
04
f1
19
f6
e9
e0
0f
18
0b
e9
fa
fa
13
d6
e9
f8
26
0d
11
ed
fb
1c
f3
3c
21
26
df
ee
26
06
1f
fd
f4
34
fc
e0
19
1a
27
fe
f7
04
1e
45
29
1e
21
04
e9
09
2d
18
0a
e2
03
03
22
0e
ff
2a
17
21
fb
09
0f
ea
de
ed
2c
04
d9
3a
1a
11
16
23
19
fa
da
03
00
ee
cd
d6
14
05
2b
0f
19
fa
ff
fe
d9
fe
ff
f4
0f
25
56
25
12
00
11
06
ff
f8
ef
eb
d3
f4
f8
f9
e8
06
e1
f8
14
07
f6
e4
12
ef
d7
e1
e7
fb
f5
36
20
0f
1b
2d
49
3e
11
17
0b
1b
06
ec
fb
eb
fb
0f
ef
fd
0f
15
38
3f
23
03
ed
0e
08
26
f0
d6
0c
0e
e2
03
07
1b
18
07
1a
e0
c0
af
d6
eb
fc
f2
d1
ef
c4
e5
f5
dd
0a
e2
dd
ef
e5
ec
db
ed
f2
ef
0a
f2
15
0b
ef
d5
1c
44
2f
22
1e
f6
ff
14
e3
0a
f8
f8
02
f5
fa
ff
f8
11
f0
ef
ea
ee
ea
f9
00
d2
d1
d8
ce
d0
24
34
16
11
17
0f
41
1e
11
04
f3
fd
df
ee
07
d3
da
05
04
07
ed
03
f9
00
0b
db
f6
ed
f7
fa
e4
01
d7
06
fd
f2
01
fa
2e
08
20
11
fb
12
37
cb
dc
bd
04
f1
f0
28
08
04
d3
17
43
28
ff
25
f7
16
06
da
ec
0f
2f
25
05
fc
12
fa
e2
0e
f2
18
09
0d
12
f9
24
1f
07
f4
f6
0d
fb
11
18
f2
db
e9
0b
1e
13
30
25
1b
1e
46
ff
26
06
eb
f4
0e
23
0f
00
0b
07
0c
27
20
18
0c
09
e0
e8
f7
03
e8
d6
c4
ee
fc
f7
f2
08
0a
f5
e4
d6
ef
27
f7
0b
00
d3
e6
01
f2
05
ed
e2
dc
f4
f2
ea
d5
ed
dc
e3
02
15
fc
e4
ee
d5
d7
df
f2
db
cc
d3
e5
ea
d7
12
fd
f9
df
be
cc
1a
10
e7
06
18
3e
ed
eb
c7
f6
0a
0f
e6
fe
e9
f3
e9
da
d7
df
dc
0e
16
ea
e8
fe
24
13
40
e6
e2
06
fe
d5
0c
0c
19
ef
df
00
1e
fb
ec
d8
fd
f1
03
ea
09
fe
d4
f1
07
e7
12
eb
ed
c7
c2
ce
18
ee
14
ed
d1
d8
14
ef
e5
06
05
1b
e8
ec
09
e3
02
0b
0c
e9
f8
f2
d7
f9
02
0d
fc
07
0c
13
12
03
ef
e5
ef
f2
09
ff
da
e9
d5
03
f8
1f
15
03
0a
eb
06
32
14
ea
f2
ff
19
01
05
19
10
0f
fc
05
15
fc
0e
fd
1c
d5
d7
ee
12
19
d4
f7
db
db
10
fe
e9
f2
ee
ec
e8
d3
eb
d9
0c
f0
f3
cf
01
e9
2a
1d
c2
b8
08
ff
03
0c
2f
08
04
e3
0a
1b
ee
19
24
1a
1a
fe
c7
15
15
0f
10
08
1c
f4
23
09
de
05
0a
08
0c
11
02
1c
1a
e0
ed
fc
0f
2d
e7
cf
d2
fa
16
13
29
fe
f4
05
fe
d9
e1
f6
3e
20
16
05
14
11
ee
f1
22
1e
fc
00
1a
1a
07
0c
01
e8
ea
db
05
0e
04
15
e8
c4
15
fe
e5
fc
f3
f7
06
f1
0a
1c
ff
fa
15
29
13
eb
f4
c4
fb
fb
ea
0a
10
fb
0c
f8
1c
10
ef
f5
06
fa
f7
e1
fb
d7
eb
f5
eb
fb
fe
f0
cb
ec
3b
12
14
09
c5
f2
f8
db
e6
d2
d1
0b
eb
03
ef
fe
02
ff
fc
0d
0b
17
d1
f4
ec
fd
0d
e0
03
0f
d8
ef
0c
07
f3
dc
fa
17
03
ea
d4
f5
14
f7
f4
e5
ee
e6
0e
2d
fd
00
ee
19
0b
1d
03
09
de
e7
04
fa
0b
2b
25
ff
f8
f9
1b
05
25
08
ec
fb
d7
18
dd
05
c7
f3
f8
fa
db
eb
ed
d2
04
14
0a
0b
18
31
15
1c
08
28
48
30
29
03
0c
03
1e
0d
02
ee
27
02
fe
2b
1e
1c
0f
37
49
06
df
f7
01
1b
17
e1
df
dd
30
0b
e1
f1
de
e7
f2
f2
e7
e6
e1
e8
ff
04
3f
33
1f
e0
04
24
05
f7
e8
c0
f7
03
dc
dd
eb
f0
f1
fe
e1
f6
f6
fb
e3
fc
31
14
14
09
0d
cf
ea
ff
20
19
20
f4
f8
e5
fc
0d
e8
e5
f0
fa
eb
f4
e4
ff
fe
1e
1f
ef
0d
1b
18
09
20
d4
22
15
1a
f5
f9
09
07
e0
e0
0c
ef
1f
d6
e9
e0
ee
09
01
f5
02
04
04
1b
23
06
20
0c
f0
0b
05
21
13
e4
02
12
f2
fb
d9
e6
e7
ff
ed
e0
0b
0a
f0
c4
03
f6
0e
d8
fb
fe
da
de
bf
e8
ea
fc
e7
f9
de
df
0b
28
e5
1b
07
20
38
05
ed
11
47
dd
04
02
02
09
02
21
0a
01
f3
ef
f9
17
fe
ed
fc
19
e0
c1
f3
df
f6
2d
0b
dd
ff
20
15
03
11
fb
26
24
13
25
e4
ec
0f
0c
fd
f1
ee
19
f7
d1
d1
11
1c
20
37
fc
f1
05
e0
0c
ee
10
e3
ea
c7
ee
ea
e0
e8
ae
d9
17
ed
ff
ef
fd
f7
f4
e0
f2
ef
d3
00
2d
17
fb
f2
11
28
31
04
e8
fb
f8
03
0f
24
1b
f8
15
04
16
1f
0c
01
de
32
1f
0e
e3
06
04
0a
21
da
f6
10
16
02
17
f7
f9
e8
1b
14
07
d7
d9
1d
19
1a
ee
d0
e7
03
f8
e0
ca
f1
00
f8
eb
dd
09
2d
25
03
03
08
f6
10
df
f6
fb
d7
ce
c5
f1
bc
be
08
d4
ea
f8
ff
eb
fd
f6
f6
1d
0d
11
0b
13
0d
fe
2a
09
15
07
1d
f5
0f
11
04
45
e7
f9
01
05
2c
fa
1e
1c
39
23
15
04
f1
f3
07
05
06
1b
12
24
0b
d5
e6
cd
f2
09
07
f5
f8
e2
eb
f4
ea
ea
ca
da
ed
fe
e9
eb
e3
e6
f8
dd
e7
f2
eb
0a
0e
fb
f2
dc
10
11
f0
14
29
10
06
f1
fe
ee
fa
0e
1d
ff
0d
d4
06
24
08
ca
cf
02
e9
3e
25
00
f0
06
20
30
03
f7
d7
d7
fd
fe
e3
ec
de
0c
f2
ed
30
da
f0
0e
01
23
f5
02
e0
e7
fc
08
07
ea
d2
0e
03
f1
ec
ea
13
ed
f8
0a
f1
15
dd
d3
be
f0
c8
33
1d
01
fe
c7
0e
fc
df
d4
be
06
03
19
fd
ea
ea
08
14
0d
10
0e
e9
f1
f2
e4
ec
dc
cb
e9
d7
ee
f0
ec
cc
f9
f2
0a
03
eb
06
e3
0c
26
19
16
03
19
1a
0b
fc
04
f4
00
01
fb
00
f3
ee
ed
d8
f5
0f
10
e2
f4
ff
f9
d5
c1
bb
1e
07
06
e1
de
0e
1b
e5
fb
fa
05
08
f7
ed
f8
19
e8
dc
0b
03
f3
02
09
0d
1b
fd
26
f2
f0
04
f6
f0
1d
db
9e
ed
f2
02
eb
bb
e2
37
f9
01
ea
16
ed
e7
1a
fc
04
02
10
23
1d
e5
d9
e9
f6
11
ee
dd
ba
14
2d
10
01
ee
fc
00
ef
0e
07
1f
3d
03
21
da
ec
1f
e1
ea
d9
ea
10
06
f4
d4
d5
d6
0b
f9
ff
20
04
ff
d5
bd
d3
ec
10
06
0c
24
fd
f2
16
f2
1b
10
12
13
0b
1c
ca
31
f5
e8
0c
0f
24
d3
02
00
0f
fd
e8
c9
08
04
ef
c5
cc
03
e1
f0
f5
04
15
bb
dc
df
f7
ef
2a
f5
f1
c4
e9
f4
f3
f5
eb
e7
e8
20
4d
15
07
22
0f
ff
fa
12
13
f5
c1
f8
d8
10
f1
ed
f9
0f
fb
f2
e6
f7
e9
ca
2d
0a
2a
d9
ee
0f
ef
e4
d6
e3
0c
fa
d4
cb
d5
25
d7
ea
ec
03
f6
b4
c6
ab
cf
03
f9
e9
db
e5
f5
d3
d4
33
f9
04
fc
1c
15
12
e4
f1
d8
1d
0a
11
30
00
25
19
21
f2
09
4c
2d
fb
10
ff
12
03
f3
03
09
13
2c
1f
38
13
f9
f9
0a
14
ea
fd
23
e9
f5
fe
22
11
06
23
1a
fb
f2
13
ef
0e
33
2f
fb
08
b8
e9
32
fb
00
2e
fc
12
01
0f
4e
17
23
13
15
1b
0d
03
02
e9
f9
f2
ca
00
01
fc
23
24
e8
cb
df
11
2b
f4
ff
39
03
e6
fc
09
d0
cf
dd
f0
ff
0d
4a
32
e9
eb
0c
