00001545
000004af
00000aed
0000066b
00000bf1
fffff5a4
fffff963
000001bb
fffff98c
fffff4ac
fffff892
fffff74d
fffffb24
00000811
fffff73f
ffffffc8
fffff7bf
fffffdd0
fffff904
ffffff05
00000021
00000a71
00000c1c
fffff5cc
fffffb9a
fffff08b
fffff8ba
fffff0dc
00000480
fffffc9e
00000cda
fffff12d
fffff7ee
fffffcda
0000009f
ffffee4d
0000047b
ffffede8
000003f9
ffffffb4
0000039b
00000ffc
00000a28
000010e1
000002c2
00000afe
ffffe3fd
000007ff
0000006d
000002b6
00000407
fffffecf
000005a8
00000fa9
fffffc05
fffffe05
fffff93d
00000368
fffff542
00000334
00000e38
fffff7a0
fffffa0a
00000a20
00000f31
00000c15
0000167a
fffffb41
000005e2
ffffe904
fffff94e
00000275
fffff2f8
fffff1a5
00000ac1
00000d96
000005f6
00000387
fffffc41
000004b4
00000469
fffff91e
0000066d
fffff108
fffff228
0000072a
0000008c
fffffae9
fffff352
000003fd
00000719
00000e4b
000009d7
00000137
fffff21d
000002c6
fffff764
000006f8
ffffede2
fffff5c4
000000e6
fffffe85
fffff6bc
fffffaea
fffff276
000003f2
00000b19
00000b7d
000004a0
0000043e
fffff252
00000e47
000004e2
000008df
000001b1
0000052c
00000f66
00001284
00000b0a
ffffeed7
