16
1d
cf
0b
dd
ea
ed
f8
13
e4
0f
12
1e
14
05
0d
59
0c
18
17
d9
32
ed
1f
31
27
fe
e5
f1
f0
25
1a
1e
08
41
c1
00
24
05
2c
2f
11
e0
28
14
30
18
e9
b2
f7
bc
14
bb
c3
d8
e2
06
40
14
f8
08
17
11
df
e8
20
da
01
d1
24
16
06
4d
25
2f
f2
f2
ff
47
e5
2e
16
1e
ea
0c
d8
09
3e
e5
03
ff
f6
23
e8
06
1c
cb
29
32
e0
2f
27
fc
dd
35
d6
07
12
39
1d
2c
e3
26
f4
bd
eb
11
ef
b2
ec
c5
24
db
13
ec
b6
1a
c9
ed
ff
d6
05
c2
ea
f1
46
fd
d9
d3
cb
28
2a
f6
d9
24
16
51
14
3c
f8
bc
07
c4
04
d2
f5
2a
18
07
e8
ff
e0
41
24
e3
e6
0c
ff
4d
21
f9
2d
f5
3d
47
f1
1c
dd
1f
01
10
d9
bf
16
2c
fb
13
e5
0d
f6
ed
3e
b9
b3
b4
bd
41
c9
fd
11
da
00
be
dc
16
dc
c5
e7
de
39
f4
fb
e6
16
e2
35
42
2e
de
0f
05
de
1e
19
f2
37
0f
b0
0a
a2
cc
42
0f
07
19
de
28
e0
37
0a
04
08
ca
b6
17
10
d8
f5
fe
be
3b
2c
14
a6
0d
f2
db
dc
fc
33
d4
ca
da
ea
dc
28
f2
f3
22
32
dc
d2
d4
10
40
f7
ee
37
c5
2f
f6
0f
07
01
bd
ed
26
f8
c1
22
06
fd
e4
f9
fe
23
08
53
f5
11
d8
bf
15
ed
b1
1d
fb
e5
fa
0b
1d
2e
36
eb
18
39
d5
e9
09
f9
fa
fc
f5
ed
f0
bb
ad
08
f9
df
21
20
d2
cc
0c
b7
21
1d
12
3c
f4
0d
09
31
68
f5
e5
e2
cd
e1
42
12
1c
e4
10
ce
da
12
0f
21
34
12
ff
e1
f9
4d
03
1a
17
0f
fc
1e
2a
15
e0
0c
11
fe
3d
ff
18
0c
d2
f6
fe
bf
c1
da
d9
43
29
d4
17
4e
18
cf
13
ed
cc
17
2a
ff
13
ef
15
16
e8
ce
ec
ba
c0
2b
e1
e7
b7
d6
42
52
56
04
02
21
0d
ff
b4
1c
2c
e0
d8
2e
02
ba
22
29
4b
0b
bc
1f
3f
17
15
44
f2
dc
2e
ef
08
2b
31
c8
04
01
32
f5
e8
f4
af
18
3a
f1
28
3b
f9
da
fb
04
09
2a
28
f7
52
d8
33
ea
e5
22
f7
36
97
da
f8
1c
33
c3
24
fc
fe
d2
06
a6
26
b3
19
eb
d2
50
33
05
ca
e6
be
1e
e4
10
51
46
01
c8
d3
0a
e0
3e
02
f4
66
e1
01
06
05
55
1a
5a
cf
56
30
09
d5
da
0a
e8
f4
4a
01
fd
f8
e1
e4
10
b5
02
d4
f9
0a
d7
f1
14
eb
5b
ea
e0
07
17
2e
eb
08
f5
d6
f2
46
d3
3b
e2
15
07
d5
39
0b
e6
e9
ec
ab
19
e3
c1
b8
f4
06
2e
b9
42
04
e7
20
23
56
f7
24
14
0a
fd
d2
0d
fe
af
e3
e0
1e
f2
c8
eb
c9
16
e6
de
00
e8
f6
eb
fc
b0
d5
ea
23
f0
c5
39
50
e0
eb
f6
e6
26
c1
06
20
2a
2f
e0
f6
fc
20
2c
16
07
32
f2
26
ff
cb
37
d8
5a
f3
41
1b
f3
22
be
fb
23
ce
f8
a1
fe
ed
da
0b
2e
d6
f4
b4
f7
01
f5
13
1b
df
33
16
20
10
32
16
bf
e9
3a
ae
d7
30
dc
15
ef
ff
cf
e3
1c
02
e6
fb
f0
95
d7
08
bb
f0
18
0f
d3
f5
10
e4
c6
d8
45
35
dc
d7
21
05
d1
d8
08
0b
d5
f3
d2
fb
f8
e6
1d
2e
04
4f
33
2a
48
c6
2d
fa
53
07
1d
c2
1f
bf
0c
e2
0c
47
02
0d
f1
d5
1b
e5
f6
e6
b4
c8
09
0d
d5
dc
43
d2
c7
16
d5
52
0c
07
18
c4
a2
05
20
01
e7
0f
ea
fc
2c
fd
d4
d8
e2
ed
07
3c
23
32
ff
22
31
ea
51
48
1f
db
ef
22
bc
13
0b
e5
15
f1
f6
d2
e6
0b
ed
07
ff
27
25
1e
27
37
14
fb
1f
06
07
f1
2e
c1
ec
4d
0f
2d
2e
be
e3
12
d7
2d
25
31
4b
ec
d3
f4
2a
e8
46
19
09
ab
1a
3f
d2
16
fc
47
4f
d8
34
34
0f
51
ed
09
d9
0c
ed
e6
15
00
20
fa
ed
53
16
f0
10
e2
0a
d8
fc
14
d0
38
05
27
fd
05
17
e7
df
2f
04
d8
ff
2b
3a
04
00
ee
fb
3a
ec
4a
fa
c4
f8
25
3b
fd
f9
55
d9
f5
09
d1
1b
07
e2
cf
f5
f1
b8
fd
18
5e
0e
db
16
27
0e
fc
19
3f
34
ad
f2
28
fa
e0
c2
42
20
f3
1c
fc
b4
cb
03
ef
04
f8
2f
1e
16
28
0d
3b
62
e8
2f
59
d9
0f
1e
1a
23
eb
20
c1
00
e5
dc
00
fd
28
0c
cd
27
e9
cb
46
0d
08
f8
02
1c
34
fc
e8
04
ce
14
f7
02
20
c3
e9
19
d1
d7
25
0b
e1
26
f7
b9
0e
23
2c
1f
0b
1d
fc
d6
f4
5a
bc
2e
a5
eb
fd
eb
ff
ad
d4
ec
d8
e2
dc
07
3d
ef
05
3e
fb
fc
ff
e3
d0
f6
fd
04
15
1f
50
1c
f6
11
1a
c3
23
ce
1a
15
04
e4
20
01
e5
cc
38
2f
d9
00
eb
12
93
3c
05
1b
21
11
41
bd
23
0e
26
51
24
27
d9
01
2e
12
fd
39
cd
12
fd
19
04
01
d2
0d
2a
d9
25
25
17
4c
e5
f8
e9
3f
fa
c0
c5
fe
1b
00
35
b5
10
04
9f
ce
fe
4a
e8
f7
18
ed
01
19
a9
10
d7
e4
2f
ba
d5
e9
25
c1
af
22
22
3b
00
12
21
b9
0e
09
40
3c
20
e2
36
1c
24
0f
34
13
0f
d1
49
ad
21
1b
e0
f4
d1
32
24
24
ff
20
bb
f8
c8
07
d0
35
28
f2
02
29
00
ee
24
1d
f4
1d
f4
07
f5
fe
1e
be
ea
12
a7
02
b3
15
e9
b2
de
31
29
db
e4
36
1f
31
06
f5
26
1f
37
bc
c1
c8
e4
e9
41
32
07
42
d4
4d
4d
2e
04
17
bf
c4
4c
07
25
d4
ea
53
d1
fc
bf
c7
fc
4a
e3
f3
10
38
f7
25
27
e8
14
dc
cc
12
0e
be
f7
f3
33
21
1d
e5
fa
e1
ff
1a
12
2a
e0
06
16
3d
18
fe
f0
ba
fc
fa
10
1f
3a
45
54
cc
13
54
19
14
02
26
db
fb
21
2e
f3
dc
3b
1c
1a
27
5a
09
55
27
10
fd
e8
cf
e1
fc
13
1a
4a
cc
bb
e1
c4
16
c7
d8
de
e2
37
e0
36
12
cc
2a
e0
24
ff
29
d7
66
39
14
20
0e
d8
e5
0f
a6
0b
fb
08
dc
25
33
5d
30
f4
09
cf
2f
ea
ca
4d
f1
1c
03
c8
f6
28
27
dc
fb
30
a5
ce
1e
10
31
2c
25
ef
24
ee
10
ea
f6
cb
27
be
4c
01
ef
f4
eb
29
fc
05
db
f4
f8
49
27
da
31
c9
ed
cc
db
cb
38
09
d9
eb
ec
f3
f7
2f
03
e0
c9
dd
24
c0
2b
da
ef
ed
bc
d9
e7
fd
c6
f3
3c
f8
0f
18
24
0f
38
2a
0e
35
f6
12
14
01
34
f8
3b
e3
f6
33
ef
db
ac
d9
c9
d1
3c
58
a6
f3
f7
f8
e9
a8
cc
e7
f1
fe
0a
cf
33
bf
fe
3f
d7
25
e3
a0
08
08
fc
20
dd
fb
4e
f7
d4
e1
33
c7
ac
0c
23
3c
02
ec
1d
bd
2c
a8
24
0b
24
0a
f8
cf
29
b8
f8
1e
30
1c
fe
31
32
d4
c4
4a
36
03
13
2e
33
04
e0
20
0b
6b
e3
29
59
06
d7
0b
03
30
c4
c0
f2
0b
42
b0
fb
36
dd
fd
db
c9
db
be
00
ed
1d
31
27
fc
ce
20
61
31
fe
f5
26
f9
f0
05
19
c3
b4
14
e0
da
f9
0c
40
03
1d
ef
d1
d8
fd
24
17
11
28
d7
62
36
1b
f3
1c
ce
e4
40
fe
30
da
ef
2e
c1
02
d5
e4
f0
56
d0
c5
e8
17
d8
32
27
05
eb
b9
dc
c5
2e
c4
c5
d3
49
1b
39
c3
ec
f3
f3
1a
1d
3d
0a
f2
43
10
e0
28
f2
f1
f6
c2
0a
b8
1f
46
33
32
26
39
fa
f3
1c
ff
ff
db
c3
39
ca
df
34
f3
db
18
52
01
1f
c9
21
e1
51
00
fd
37
33
dd
33
e4
d8
df
d7
ec
d9
c3
f6
1b
1a
de
35
1c
e0
1f
be
ea
df
31
33
df
f0
f9
09
1a
00
2e
c8
29
1f
21
07
40
e2
21
e5
e9
19
f0
f6
a8
c1
21
ae
e4
b2
ea
d6
12
24
df
11
2f
d5
e6
3b
ff
2a
cb
a6
da
fd
bc
ea
40
00
06
f0
df
04
ea
e1
b6
ed
ff
fb
dc
34
22
1d
02
22
34
dc
04
19
c4
e6
3d
4d
e2
00
41
4b
4a
01
05
df
f9
cf
e9
05
df
45
f7
fe
57
4b
0a
40
17
12
ff
2a
17
e2
0f
24
fe
39
15
e0
b0
ed
25
fe
17
45
4c
e9
ad
17
1e
ce
1f
f0
15
c7
04
1b
ea
0b
ba
ed
fa
cb
0d
02
b9
e7
d8
d8
ec
be
5a
f3
dc
1a
ce
f3
47
0e
ef
17
d0
f7
b9
de
0b
d0
22
d0
ff
f3
09
d2
dd
d8
57
0d
12
1c
57
d7
f9
b1
1e
3f
ef
cc
00
e7
13
d1
df
ed
10
13
0a
f9
de
f4
18
e2
56
26
49
12
b2
d5
d5
0c
da
1e
14
d0
cd
17
df
24
f0
dc
93
d4
08
f6
0f
06
fb
d4
fc
14
e5
a4
1a
d0
f7
1b
18
f0
0a
18
28
37
cc
10
f7
f7
fd
01
10
25
fc
de
25
1e
0a
c2
db
0b
01
61
3e
1b
0a
b7
2b
07
15
13
18
d0
08
dd
f0
2b
f9
3a
d5
1e
09
ed
d8
25
c8
ed
e5
df
20
02
05
d1
38
d8
d3
f1
e5
2f
29
fe
f5
c2
d3
34
3c
c3
23
0c
d1
cb
3c
2d
c5
d1
c4
05
c5
49
08
00
d5
f0
5a
fc
6f
1f
23
d1
a2
f9
ee
fd
ee
14
f3
20
06
d0
c7
00
db
f8
cc
1b
4d
04
09
08
0d
0b
1c
17
f3
e2
1f
d9
ff
39
10
1a
3b
2e
f6
ca
d7
54
51
12
23
c6
d5
e5
2d
f0
1a
e9
2f
ef
e0
05
2b
25
1c
13
07
d1
f3
e0
ca
fd
c7
f6
ef
e8
48
5c
22
ed
1d
cd
4e
f2
d7
40
ef
3f
03
eb
0b
14
2d
b6
ef
5a
b2
27
01
e2
46
2c
4c
e2
3c
10
11
f1
e1
db
fd
b9
44
f1
f2
f0
d0
f3
16
f6
e8
eb
1c
1e
1c
fd
38
c8
2f
f6
c1
e7
f4
2f
c6
d4
f3
f6
d4
47
fe
13
d6
1b
d7
fa
31
0f
e4
e0
e1
e1
f1
e2
df
cd
24
0c
25
e4
41
05
38
28
08
2a
d1
28
4d
42
e0
d2
36
fd
d3
ee
d3
26
ca
e5
bd
00
d3
ec
08
10
12
29
c4
20
09
eb
f2
f2
33
42
e5
44
22
c9
08
c4
20
42
ee
4f
da
0a
49
16
e7
56
28
3c
e0
fe
40
03
0b
0d
c2
d7
ea
45
e4
31
fc
fb
e1
9c
55
3e
0a
47
14
08
08
fa
f6
a7
b3
05
2d
f8
f1
fc
f1
dc
d9
c2
03
d0
07
d2
23
17
c2
34
20
30
ff
f5
21
0f
2b
29
d1
49
46
de
ea
25
00
01
3c
1c
21
38
d7
e8
f3
ae
f8
ef
d3
e0
34
ea
00
ea
ec
c9
f2
ff
e1
fb
f4
08
1c
35
01
0f
c4
0b
ac
f6
03
16
09
ae
c1
24
f5
4c
f1
e8
2d
1a
0e
11
d8
b7
03
ff
25
d0
39
13
d8
be
19
29
f6
42
00
33
e2
3d
26
1a
fd
db
06
be
19
f7
18
39
ea
f2
e6
e8
1e
be
40
bc
19
d9
3b
e2
26
0b
fe
3c
d2
eb
cd
e5
24
fa
41
4d
10
76
04
3b
4d
b7
f7
0d
07
47
17
1f
14
c2
2c
f4
00
01
e9
f6
1e
df
eb
b8
c1
20
dd
fa
37
ea
c1
02
20
1a
fe
cb
45
d4
12
21
eb
3e
c7
f3
12
37
4b
f0
1f
f1
fd
27
4c
eb
2a
09
d1
f8
29
08
e5
c3
f0
e5
c0
52
4a
f6
19
eb
d1
31
fc
18
ff
13
e7
e9
c5
51
f6
29
d9
09
ef
05
d1
18
bc
f7
f0
db
06
3f
10
46
da
fc
3f
27
da
25
18
fd
f3
d4
de
a1
f0
1e
47
f4
3c
2f
1a
e7
03
c7
f6
d2
d5
dd
27
de
e0
0d
40
d4
19
d6
db
00
4e
c3
53
59
df
17
07
f2
c8
f5
2d
0d
0e
2f
8e
f9
28
f2
f5
1f
0b
ec
ea
1a
54
e7
1c
c8
d7
d5
ff
38
04
12
ec
06
13
0c
17
27
99
33
34
ea
1f
0a
0f
d2
2f
07
17
cf
fa
db
02
30
08
17
c9
06
3b
87
09
ba
e2
d7
17
0d
b1
01
53
eb
fa
06
dc
e7
c3
0e
1b
0f
ed
e6
47
06
ff
fb
b9
d5
c8
e4
23
d8
2e
11
3f
47
4d
2c
e1
e9
10
01
56
4c
03
02
06
2a
a6
48
21
4a
4d
d1
13
fc
13
10
29
1d
f2
1b
23
1c
24
25
e6
50
33
15
d1
cd
d4
a8
07
20
fe
6e
20
c6
f2
e5
b3
ed
34
e4
2e
4c
d0
25
f6
09
4f
08
49
b5
f1
f4
c1
40
17
39
97
36
32
b5
1c
b0
fc
bb
0b
e1
16
d1
ed
32
b6
f2
ff
cc
2a
cf
fd
eb
df
11
dc
d2
05
e2
02
ce
26
e7
d4
0d
1e
e2
e3
2e
25
f0
2c
e6
29
53
ca
13
15
fa
02
2c
1f
d2
ba
09
41
fd
bd
a9
fb
50
12
32
1e
e4
be
fc
da
00
f0
c0
48
ef
f1
c8
e4
13
de
16
c9
e9
23
ed
1d
05
27
d3
03
13
eb
fe
12
f7
fc
c6
0a
e7
ee
fb
16
f3
fa
ea
16
1b
d8
cb
ee
dd
11
e1
32
4e
3b
50
11
c5
15
bb
28
fb
e0
3c
ce
d8
1a
f7
21
1b
18
d4
e7
16
1c
f6
14
c9
f3
e3
f6
fe
13
29
4f
fc
f3
57
0b
01
bf
0c
52
1e
18
15
e9
9c
14
3d
0e
df
ca
55
de
bd
73
34
e2
0b
33
08
32
b6
e5
a9
cc
c8
22
26
bf
da
e2
b3
ee
ea
36
cd
5b
0b
ee
b2
f1
fb
ed
d9
36
f2
f0
08
2e
29
af
2e
ff
2e
47
cb
ba
0a
18
2b
de
2c
cc
d9
fa
92
a5
cc
f1
fc
ec
bb
bd
16
e0
c6
d4
db
e3
f4
ec
3c
b0
4a
1f
db
f2
2a
2a
f8
04
1a
e2
d7
1d
0a
d7
fa
15
c0
fd
ee
0f
f4
2f
0b
bd
f2
31
c6
c6
36
21
c5
0e
3f
d7
17
f0
d6
d5
fe
e4
56
c7
aa
10
eb
d2
dc
0d
3f
05
f3
3d
0a
26
04
23
17
2a
df
9b
f5
27
03
40
59
31
33
b1
fd
dc
f0
02
0b
09
27
0d
12
23
0e
04
e2
02
ee
af
f5
68
f9
24
3b
eb
21
fe
17
2e
b9
12
48
0d
fa
f0
1b
e3
d8
f4
ea
f0
e2
d4
0c
0d
2a
31
b4
e1
a4
0e
2d
27
ea
0b
3f
45
0a
1f
42
29
59
dc
06
31
09
15
23
f3
cf
0e
e1
f3
d4
02
f5
24
00
c7
2c
06
aa
da
e6
16
d1
ce
e9
d3
ef
07
d1
03
a3
c6
11
dd
2e
f7
0a
f4
d1
1f
bf
31
f4
1d
03
0b
2d
03
eb
07
37
fd
15
49
06
b2
09
24
20
25
34
da
1f
ba
ee
f4
e6
fa
13
48
02
0b
f0
08
18
ec
e3
18
b8
f8
05
dd
d5
c8
2e
51
f1
f3
e2
07
ba
04
cb
1e
e5
07
27
49
22
0e
47
04
bf
01
1e
f7
ef
32
4a
4b
1a
2e
10
01
db
f8
19
e7
db
bb
fe
fa
f1
21
ff
fb
e6
28
e1
1d
c8
f9
17
ca
1a
20
e9
23
da
b9
c2
09
ee
fa
e5
36
c2
39
d3
22
e4
06
f0
23
d8
1a
03
01
18
22
be
4b
16
b1
f0
fb
e5
27
0a
05
c7
03
1e
26
08
9c
e0
29
1e
fa
15
2a
11
fc
26
c6
06
1f
3c
4d
ef
d3
da
b1
fd
0d
c8
98
14
dc
c1
ea
20
05
43
05
08
f5
de
0e
d1
47
04
05
3f
d6
02
de
db
1a
c9
00
29
ff
da
e1
13
e1
cf
36
c7
13
13
fd
1b
b2
09
40
0e
d5
0f
e6
0d
fc
2a
f1
1f
d6
4a
c6
0f
41
c4
f5
d8
51
16
d3
51
18
0e
34
e6
e1
04
43
10
c3
0a
2b
f7
f8
ef
f9
29
05
05
fc
5a
e6
ec
f8
ca
07
42
c6
2f
22
0f
bb
cf
30
dd
ba
17
f2
aa
c3
35
15
e8
1d
e6
d5
0b
ba
bc
14
f7
e3
16
f2
0c
d5
39
1f
40
08
05
c8
18
2f
b7
1c
24
25
08
3e
0b
26
11
46
ce
29
02
fe
19
bf
c7
55
03
e5
1a
ea
19
05
31
00
ec
f4
cd
0d
1d
bd
f6
1d
24
17
0f
dc
17
bf
36
ab
0d
b8
e4
f3
fa
f1
33
24
a4
f8
ba
e6
47
10
30
29
44
1e
de
cf
2c
e8
1c
ad
39
fa
e9
bf
f7
02
03
1c
d9
0e
0b
0e
0c
d4
ca
3e
02
f6
ef
ed
e3
d3
0c
0a
c4
19
0c
3e
3b
ed
d8
f3
e3
11
dd
f8
c4
2c
16
be
08
f2
e2
f9
3b
4a
16
d6
12
1b
b6
ff
04
00
c6
f8
c3
e9
ea
e9
36
17
5a
dd
d4
d8
ef
d5
05
22
50
ec
2c
42
f3
26
c7
0b
fd
f3
3e
d7
2d
11
f5
21
e3
cb
e8
d7
e8
d2
5b
ae
e1
cf
dc
05
20
12
e1
0d
0f
df
f0
1e
be
07
c6
0d
ca
4e
fd
28
fd
17
40
06
3b
fd
4c
fb
40
f0
0f
31
c4
5a
16
21
08
16
2c
db
cb
18
e6
f6
c3
44
0e
19
ef
fd
c6
bd
bc
1e
51
b2
f0
e3
c9
27
1a
20
f5
43
16
0f
db
33
d3
e0
2b
f6
10
34
22
fa
0c
f1
2f
e2
23
2f
b3
d7
18
05
33
22
16
f8
f8
de
ba
d1
f3
20
3b
f3
a6
de
f7
02
ee
0e
26
b7
cc
ee
1a
fc
16
fd
da
2c
cd
ee
da
e5
33
e7
00
10
18
29
37
01
17
e1
09
02
b2
09
20
d5
29
f1
07
0d
1b
3b
45
04
fb
ea
25
de
28
26
26
19
d5
fd
d6
f0
18
03
ec
ad
4b
db
ef
41
2a
1b
dd
3c
3b
0f
d5
e9
e8
b4
c3
36
28
bc
d7
a8
b5
f2
24
5c
0d
31
ea
24
ef
db
13
ee
2c
3c
e6
10
f4
20
27
b2
e4
f6
3a
03
e6
c6
0e
34
3c
d3
62
f8
dc
f9
b9
b2
e8
fd
18
ff
b4
eb
dc
e1
35
29
0b
cd
d8
c0
e1
c1
2d
23
10
a6
0c
4e
09
fc
02
ff
1f
14
11
c7
0c
14
38
cf
2c
2e
d6
de
c4
ea
56
05
fd
e3
d6
4b
b7
ca
3c
28
1c
ce
04
ee
cd
dd
2b
cd
b8
d8
ff
f4
3e
21
ee
42
b1
3a
40
d4
49
09
ee
df
bf
d6
ab
00
57
f3
f3
09
15
dc
ed
01
c4
e8
f6
eb
d0
fa
0c
e5
28
2e
e1
df
31
d0
09
1a
c9
0c
2d
13
0c
23
2e
56
fc
41
12
13
e2
f9
d3
03
f3
c3
e4
cc
0a
38
28
26
14
1f
be
e5
f5
1e
07
42
11
45
37
e9
d9
3e
50
3e
e2
b1
ee
03
c2
d6
e5
26
e7
ff
d4
60
20
d1
ee
d7
f0
3a
c6
05
42
eb
2b
bf
ef
3e
c4
3c
ac
0a
f7
d6
27
e1
0c
45
fb
24
dc
41
f0
f2
db
0e
39
f2
bf
52
df
e2
f4
0c
f5
d8
2c
fb
c6
d0
00
2c
26
3a
0c
3b
05
a9
ed
2d
e0
bf
f3
f0
f0
c9
e5
e3
fb
ce
b3
db
15
2a
c3
cf
0e
0d
db
f3
e3
e0
d5
5e
34
11
fe
10
05
20
50
07
28
dc
16
1a
4b
d1
b6
0f
cc
e3
e1
fb
11
db
f7
f8
ee
fc
cb
19
ec
1d
20
e3
f6
ff
1e
05
41
34
08
e9
0f
11
af
49
e4
d8
f2
16
16
ef
2e
44
03
0a
3c
d7
39
c0
02
16
fa
f5
35
dd
f2
f6
f2
d6
30
f2
41
e1
c8
64
09
1a
00
ce
1e
03
04
e3
ab
c7
c0
64
23
de
db
d9
ac
bc
cc
56
d9
39
19
f2
08
e8
13
0f
1d
1f
ec
0a
07
05
01
ec
37
0a
27
1c
d5
df
f7
11
29
1d
30
bb
15
a4
ab
c9
e2
ba
27
f3
de
f2
26
07
f2
06
dd
bb
e7
d9
dc
e0
e4
0d
ef
02
b1
dd
25
0d
f6
d0
3d
09
cc
ff
25
cb
51
16
ec
f2
17
16
e6
22
2f
07
fa
18
f1
f6
34
0b
f0
e1
1f
fa
f3
43
b6
dd
c5
fd
67
1a
5d
54
0b
f0
cc
e1
ec
30
12
f5
f0
dc
1a
c2
19
3d
23
dc
ca
02
da
b7
c6
0f
cd
d1
fa
f8
ae
0e
f2
e6
19
bf
0d
32
19
1b
ff
3b
20
e7
10
c6
eb
02
c9
bd
fc
e4
4e
fc
09
e2
01
01
3a
de
d7
14
05
0d
3c
ff
ec
c4
e1
08
52
36
29
2e
ef
e5
e5
e7
f9
c0
f4
23
4c
31
b2
38
dd
06
c4
3a
03
5b
c7
fe
e9
35
ff
20
1f
e6
09
d5
d3
38
01
1f
2c
c7
d6
1b
0d
13
e8
31
e6
a4
51
d8
3a
dd
e1
08
b5
bd
25
d5
51
ed
2f
df
09
00
d5
3d
fe
21
e6
f2
20
04
31
14
ef
1e
f7
46
38
26
ec
f5
26
d4
43
11
f7
0c
f1
e9
04
ea
0f
d8
c6
01
2f
7c
2a
04
3f
04
e4
c9
c2
fd
d8
e7
34
a0
1d
21
47
d3
fe
e8
d0
dd
de
32
0a
d1
05
cc
d0
b9
e3
00
3a
ef
ee
25
27
f0
da
12
1c
3e
0a
e2
38
e9
f9
d5
e7
da
00
e0
2d
02
de
47
02
fe
49
cd
25
4c
33
06
13
d7
32
c4
39
04
49
e8
f8
07
de
ea
22
f1
2a
fb
2a
a0
28
a2
f7
19
21
05
33
ff
b3
fb
16
f4
0e
ee
fb
39
1c
c9
00
f8
e9
c1
fd
13
da
06
0e
b2
05
a2
24
50
39
22
d3
1b
fa
70
d5
13
1c
d4
e3
f9
cb
0c
27
da
39
f9
45
b7
01
f9
e4
49
0d
2a
25
cc
43
1f
fb
de
22
21
c4
2c
4d
bc
30
f1
fa
ed
dc
e1
df
15
f5
04
f9
d0
fb
1e
57
2f
f2
a4
19
c7
ee
eb
de
0e
36
e0
1a
f8
07
20
f5
1b
3d
04
cf
08
d5
eb
01
06
35
47
0d
17
be
ba
b1
d7
ed
c6
22
24
2e
f0
3a
d1
30
29
32
2f
df
1c
d7
e9
fc
dd
f2
f0
28
09
da
ef
fa
40
2e
32
28
24
e5
eb
22
00
eb
cd
18
ef
d9
31
ea
13
e5
e6
18
d7
17
f2
b8
18
1c
e8
1a
33
b8
46
2a
ca
60
18
f1
37
f0
fb
10
cd
07
3f
f1
db
0e
c5
ec
f4
26
48
f6
f7
17
3b
13
f6
f5
fd
e5
5a
f9
4a
c4
0e
24
d3
f1
2c
fd
ec
56
d7
36
ff
e8
ce
d4
3e
dd
cd
f7
c2
f6
e4
e6
fc
21
e5
34
cf
0c
d1
44
d1
00
06
d4
01
dc
fc
15
bd
45
1a
1f
19
e5
ad
01
33
2c
0b
15
4e
35
d8
52
bc
dd
c7
e2
12
a0
5e
3d
db
38
49
ee
3d
f8
d0
03
40
1f
f9
00
2b
10
de
6a
45
e0
35
48
f1
16
b4
f3
ef
0f
3f
0e
f9
9b
1b
30
eb
22
35
e9
b9
f7
26
13
43
de
22
fd
db
d8
fb
57
e3
0a
c0
cf
05
98
16
11
f8
ed
ce
b5
38
0a
d7
13
a2
d4
fa
ee
43
06
14
f2
de
d1
32
d4
18
a8
26
33
a6
1d
25
f1
38
e0
0c
9d
0d
09
e3
02
e9
42
e1
e4
48
f6
26
15
12
ef
d0
37
66
1e
ad
0c
1a
41
53
02
13
04
e4
09
ca
09
d3
d1
17
c7
d0
da
ee
21
b7
07
f0
dc
47
ab
c7
dd
22
09
f7
e5
bc
e5
02
fb
e5
d5
54
16
d3
36
38
e4
e8
fb
28
0c
ad
e1
1b
c6
05
da
f5
f0
19
04
20
0b
ef
e5
04
29
ec
13
f6
44
bf
ea
b6
1c
55
d9
26
26
1a
f3
02
ba
3b
22
f5
24
33
ff
04
cb
d3
49
c5
54
c4
48
2f
f8
ac
0e
23
1e
22
22
21
3c
32
f7
f9
be
26
1b
ce
ea
d8
d3
d5
00
1c
d0
13
0b
2b
03
d8
e9
f9
07
08
e9
03
e3
ef
dd
e4
23
f1
b3
01
28
38
27
20
72
f1
c5
01
4a
26
cf
e0
f3
29
2a
1c
de
04
e5
f6
f4
da
da
06
f0
f7
31
e1
fa
de
e0
43
fe
eb
43
2b
00
11
4b
40
eb
e9
16
3f
21
e5
02
dd
1d
18
3e
30
ae
e9
ff
0a
e9
0b
c9
d1
30
2e
1c
06
fe
21
b2
fc
29
dc
10
2b
2d
c4
14
05
c6
41
e4
a4
02
d0
49
0e
61
18
dd
18
02
d8
20
05
f4
f8
f0
d5
f0
00
23
f7
1c
16
06
2d
0e
ef
f1
2d
11
df
39
df
c6
fa
df
d5
fd
e1
de
1f
2d
4c
d5
23
e3
de
2b
03
08
27
0c
df
04
00
16
f4
f9
d8
0a
eb
40
d6
d6
13
b4
22
eb
b6
21
d0
f9
30
27
e8
1e
35
2b
2a
2d
df
ee
e7
1f
cf
f7
3d
2b
2b
d3
d9
37
a7
13
aa
03
08
e5
ef
42
3e
d2
fe
bc
66
34
0d
1b
f1
da
fe
b7
c5
45
0c
dd
da
15
c5
de
f1
1c
19
06
46
df
2d
01
56
de
1e
94
f0
e4
f3
18
d4
bf
bf
e0
05
ce
e9
04
dd
1b
04
dc
3a
fc
35
ab
e7
ae
c6
ee
f0
45
f8
c8
1a
2d
13
24
d0
46
0f
da
17
03
1c
b4
d9
fd
07
e9
fd
f4
03
f7
ff
fc
f9
1f
2d
46
08
42
d8
36
2d
e2
4b
0e
0a
22
e2
12
2f
08
3d
cb
f6
d8
2a
e1
cc
d7
10
03
0b
d1
fe
d8
53
0e
25
04
13
e1
cc
21
1a
28
c3
e8
17
e3
e8
0f
d8
fb
4d
ec
eb
18
20
e4
17
30
25
d2
eb
f8
f0
1a
ec
f8
d2
37
ec
37
fc
ea
24
bf
f7
40
03
da
e1
42
ed
de
14
2c
c9
cb
c2
ef
f8
35
44
45
2c
05
39
e7
e6
19
13
01
e4
d5
4b
dd
12
3d
d2
ce
ec
64
f8
f7
d7
17
eb
51
36
03
09
47
e8
2a
e0
ed
c5
ca
0d
a2
db
32
b3
23
ec
02
f0
d6
d8
b3
d8
e2
32
eb
1a
ef
b2
f4
26
d7
f5
d9
eb
06
e1
21
ca
09
1b
ef
0a
10
e2
04
e0
1d
02
dd
21
ff
f4
ff
3e
fc
1e
00
f5
3d
fe
2c
02
b6
0d
fa
0f
b5
0e
08
06
10
0d
16
d2
f9
1a
17
37
fb
26
2a
54
0e
31
1b
cd
e1
f0
fb
34
1f
34
42
fe
43
f4
3f
1f
18
08
c1
0c
16
fe
37
0e
d3
20
db
3a
c3
d2
0a
ce
e3
f4
b2
ec
c7
b8
fc
29
e4
39
16
f3
4a
36
47
f9
f9
24
e8
cf
32
30
d4
d8
04
f8
19
13
f9
28
d1
ed
be
df
d0
09
52
c7
eb
0e
db
f7
3a
20
da
15
18
2d
dd
10
e8
bf
fb
23
03
2e
1e
1f
ed
ec
1e
13
25
d5
21
f4
22
27
f6
12
ab
ea
cc
ce
1d
d4
51
fe
e9
10
05
de
f4
32
e8
46
ad
d2
e6
f0
01
22
06
ce
d7
d1
b6
1f
ef
58
13
fd
fa
0b
0b
14
d2
f3
e5
c4
01
1c
20
36
f6
eb
3e
f1
39
11
eb
17
ce
20
4f
fe
26
b1
17
16
d8
bb
cd
03
0c
20
b1
02
f9
05
e6
e6
f3
cb
c5
22
2b
f2
53
15
3b
1e
01
09
24
3c
df
2a
2d
10
04
e7
07
ec
28
d4
f9
f5
ee
41
1c
1f
49
c5
17
00
eb
f6
f2
11
fc
09
e0
1c
18
fc
c0
0c
de
12
4e
2c
01
fc
dc
1c
ed
10
05
06
19
d2
38
b8
e4
ab
2f
39
2b
14
de
e9
15
fb
eb
2a
30
c4
e9
e2
ca
d6
fc
cb
26
fe
ef
14
3a
10
12
39
21
ed
cd
be
01
12
b0
b7
23
f9
34
e9
e7
f7
c6
4b
0a
d4
10
59
2f
22
0b
fb
42
21
f4
11
04
3c
22
45
2b
e6
cc
f1
e0
bd
d2
f4
03
ff
e7
05
04
e5
ca
e2
15
12
08
09
0d
28
35
c8
e1
01
00
5c
de
cf
28
e7
fe
e5
07
10
e9
57
cc
34
07
e6
08
2d
e2
4c
03
31
d4
49
0e
fb
d9
25
fe
15
bd
57
d9
ed
3f
e1
d2
13
f1
ee
e6
02
f9
db
16
0d
df
08
0d
04
08
40
2e
01
c9
bb
01
c8
f0
cb
19
ce
bc
d1
32
ca
d2
d8
eb
0f
c4
f8
2c
cc
1d
5f
ea
3b
0f
f4
0c
0f
2a
e3
19
25
da
d8
25
d0
be
1a
15
f2
d2
f4
ff
e8
d5
dd
1d
b8
ec
e8
20
ba
49
e7
f3
d4
f9
c1
02
15
db
49
ef
38
ad
d0
00
43
1c
14
12
02
12
ed
0a
ad
0c
2a
2a
dc
02
3d
d2
df
ff
12
eb
2b
27
58
0b
34
eb
41
f3
15
f8
db
04
12
20
10
fa
f9
d9
1d
26
bd
e6
14
3b
d7
ed
29
f0
e6
03
18
e1
e1
0d
49
b8
f3
dc
e8
4e
0d
42
b8
c5
eb
23
1a
db
16
0e
28
f9
04
b1
fc
f5
36
c0
0f
cf
cb
cf
33
17
0a
27
ea
de
13
ef
fb
46
0f
e6
23
68
28
63
db
1c
c2
ff
a3
f7
e9
29
f7
11
e2
00
f3
4f
12
05
ec
ca
e4
f1
eb
d9
c3
09
3d
c9
25
f6
07
f0
ef
08
0d
6c
f5
1c
05
0b
d3
f7
df
cc
10
06
04
f1
34
f4
19
11
f2
06
c8
fe
26
ce
3f
dc
20
d2
20
48
f2
f8
c8
02
b2
fb
f4
0e
04
4f
d0
38
18
49
42
d5
f6
fc
e7
37
14
2d
f6
dd
f4
07
10
2f
f7
21
4c
1e
12
c2
b8
08
d8
dc
f8
e3
d2
b1
32
1a
f5
dc
fb
c5
12
14
07
36
c3
ce
0b
1f
55
34
26
18
2d
0e
df
05
dd
39
db
ca
f1
df
e2
da
1b
d0
fc
fd
dd
32
06
e1
d2
b8
15
bc
01
32
ed
26
f9
3d
fb
e2
c1
e1
0e
e5
b4
21
12
d3
f7
38
33
bf
f2
1a
04
2b
50
cc
34
b7
17
fe
14
04
ac
d9
03
b3
37
1d
ef
27
fc
00
e3
1e
f6
da
47
fb
bb
f7
17
e2
d6
0e
32
db
bd
df
d7
04
f2
0b
05
2a
01
9f
d7
30
d2
ee
fb
31
b4
1b
cc
a0
d7
ec
52
20
d1
ff
d0
f8
17
f0
30
bd
e7
29
eb
3f
a2
2e
30
0a
19
d0
02
dc
1f
02
25
41
2d
cb
20
0a
3b
ef
27
2e
21
44
f1
c8
43
d0
00
30
ec
07
bf
e9
13
07
f1
1b
0e
1d
f4
13
df
dd
07
02
1f
1a
01
2f
1c
e9
e3
c8
ca
ce
2c
b6
cc
e8
b3
eb
31
11
e9
e3
4c
28
fc
e9
47
f9
09
c2
0f
e6
fb
17
36
f1
db
eb
e9
37
10
dd
56
13
c6
4b
0d
28
5c
13
28
e7
dd
54
2b
11
40
ed
e5
41
eb
35
18
e8
d0
01
f2
f4
fd
3c
31
25
b5
f1
f8
fb
eb
11
d3
ad
ea
0b
e4
5d
4f
4c
bc
d5
16
11
39
11
0a
c6
d2
00
01
ce
f8
03
db
2f
23
1f
df
37
d4
cc
12
e2
bd
cf
35
c9
e8
cf
02
11
fa
f5
e0
ed
cd
08
10
ea
34
d0
1c
ff
11
21
dc
32
1a
1e
15
f8
df
07
1e
50
ba
dc
2f
16
f1
f9
d2
f2
93
d6
01
c9
e0
d8
03
34
fc
de
fd
0b
d6
16
16
f5
d0
03
ed
cb
2d
56
3f
ef
38
f4
14
e8
05
ca
fd
2b
37
0e
05
d7
28
20
01
30
0b
07
3b
19
15
f0
30
d8
35
32
fb
d8
fc
0c
db
f1
f4
07
e4
a5
fe
38
31
f3
af
f4
0c
df
d3
e8
09
10
c5
f7
ed
d4
fc
f7
f2
22
37
97
01
a9
0c
c3
0e
46
47
06
fc
f9
03
db
13
b8
e0
02
1b
56
df
ee
32
e6
08
2c
20
df
ea
41
05
07
b1
eb
1b
f6
18
ea
02
1a
15
20
05
1e
ef
db
d6
50
de
cc
e4
cd
12
9b
dc
f4
dd
b6
e2
25
03
24
de
cd
f5
f2
16
38
42
0b
08
19
08
2f
09
e0
22
f5
d4
26
c0
dd
0c
f7
04
d3
ee
a0
e2
ec
07
42
e4
0f
16
2d
03
f7
11
1d
34
13
c3
de
2f
fd
e8
f1
5c
f3
d5
de
28
4a
38
16
fd
ed
e3
f2
c8
3f
ed
49
c4
19
14
db
f4
34
f5
fb
08
25
d9
47
2a
f5
df
0e
dc
32
dc
38
1f
b6
f0
e9
e3
fa
ff
4a
2d
f0
fe
2b
1f
1b
00
b3
d1
ea
c3
ce
40
15
29
d4
2a
1e
e9
0b
1e
43
09
d6
5a
55
27
15
2c
ef
23
f8
3d
0d
c4
00
df
e3
2d
ff
d9
d9
02
05
ee
e7
31
fa
2d
11
c6
e2
1a
25
19
3f
43
dd
19
bf
5f
e5
52
f5
3d
fe
d2
fd
ec
1f
fa
ee
e9
32
0a
30
20
d6
3e
e7
fd
03
d9
6d
1e
57
2e
11
14
19
14
c2
d1
48
f8
0d
11
ec
18
2a
18
e7
fc
3f
a6
19
d7
de
2b
03
23
23
c2
1a
c7
02
de
e2
c5
10
3e
ff
03
00
05
d8
e1
b3
f9
d6
3c
c0
c9
d1
a0
54
04
ff
08
bc
d5
e6
2a
13
26
dc
02
dc
ee
c4
b8
07
ed
2d
02
17
d2
e1
14
f9
fc
38
ce
16
1e
13
3e
42
1a
d8
07
d0
bc
1c
f2
e2
bc
f1
24
db
cf
30
19
07
d3
f3
1b
ce
07
f1
37
f8
16
10
32
f3
f5
2f
b7
17
03
ef
38
d9
b0
ac
24
0f
2f
e7
2f
ed
49
c6
ee
ec
29
23
27
e8
dc
fb
ce
de
0a
e8
26
33
f8
07
ee
17
ea
24
26
d1
13
36
06
21
e8
bc
1a
fe
29
e8
2f
e1
cf
fc
05
02
31
17
32
f2
cc
f3
c2
1f
db
df
b1
34
1b
dd
38
26
2d
3a
16
fc
2d
ec
2c
e0
25
ee
17
e8
ed
e6
d4
f0
1d
ff
e0
37
0f
f7
09
36
1a
ef
1e
fa
33
d8
fa
1f
c4
53
fe
51
d2
24
05
e2
1e
d9
f0
d2
53
dc
e0
dd
27
31
0c
f7
dd
f3
4f
fc
17
26
fb
c6
c1
27
aa
05
da
bf
e5
f8
f5
54
e2
f6
01
34
c3
fe
46
08
3b
1e
f4
e6
06
22
fd
c1
e4
f1
a3
14
3a
07
ed
ee
18
31
1b
50
ff
ca
9e
bf
f0
0d
10
0e
05
db
1a
cc
28
f8
b0
23
29
f6
56
35
34
da
ea
02
0a
31
1c
f7
e3
fd
d6
1d
c0
10
10
ac
10
cd
d3
29
f7
df
45
f4
c7
cd
2b
2e
2f
48
29
f6
ec
f5
e4
e3
e7
c5
fa
f5
f3
e3
c8
25
05
21
c3
22
ef
25
2f
aa
e7
dd
0b
ea
fa
45
2e
ef
36
de
fd
d3
52
07
c4
42
f2
43
47
05
29
b4
e0
c5
0d
2e
de
37
26
2a
f5
02
e9
10
39
26
33
e1
e7
d0
e4
1b
05
d1
ee
22
06
a6
37
db
36
21
ef
3e
40
02
3f
fe
d2
d5
b0
31
cc
26
23
c1
f7
c1
ef
e8
39
f9
05
b7
23
00
dd
ee
f4
ea
32
22
d5
2a
12
26
2d
b8
00
1e
d2
da
f0
e5
c4
c7
da
e9
10
18
3c
1d
4b
fd
29
ce
45
b4
31
1f
33
29
1e
d9
c2
4a
eb
15
de
10
e7
54
0f
e2
b6
41
db
00
f3
11
18
c1
ff
ce
34
f5
d9
d9
07
c6
12
4b
d1
05
f0
f0
da
fb
fc
39
c6
0d
11
ea
a4
e7
df
23
32
60
e9
f2
15
d7
16
07
3d
0e
cb
19
fd
d1
04
bb
f4
1e
9b
24
1a
ef
f8
d1
20
d2
ca
0b
10
e3
26
00
d0
e7
e7
02
e8
19
29
bc
3e
3a
f7
3b
46
36
db
df
26
3f
23
2e
2b
02
07
f9
1c
16
f7
cc
01
9b
df
f7
18
3d
f6
25
3e
ca
26
06
e1
54
0c
d9
d6
25
c9
f5
35
cd
11
fe
c5
2f
e0
d6
10
cc
1a
b8
d8
14
e2
f9
06
f2
cb
c7
0c
3c
17
14
06
f2
dc
ce
54
15
2e
c6
ff
e8
db
47
c0
04
f2
24
ff
f5
56
23
e3
34
31
bd
f5
e6
f2
f3
e1
de
d7
35
03
2c
40
ca
1f
2f
00
01
cf
08
19
c3
ee
0a
ec
b4
c4
41
09
f9
f2
1f
f7
c4
12
17
31
e5
40
15
25
4e
e4
2e
57
c6
46
2c
18
24
0d
ff
f4
e1
30
fa
22
f4
2a
30
c6
f0
db
d1
19
b3
b6
cb
0d
da
00
c6
41
da
f8
05
bf
ee
40
ce
f6
1e
f8
2b
b3
d6
02
b7
43
9a
40
f2
b3
fd
18
f3
48
08
23
da
33
d7
16
01
f6
17
ce
cd
43
bc
ed
eb
e1
1e
fd
27
06
e0
d5
0f
31
10
26
f7
48
0b
ec
00
2a
43
ab
dc
38
f4
bb
21
d5
31
bb
b7
db
f3
37
b6
dd
22
0d
ae
df
04
ae
b8
42
f6
36
24
18
fa
d2
18
3d
48
c1
fd
5a
0f
c2
d8
1f
ca
d5
ed
e2
e2
02
f8
04
11
29
23
fe
f5
ef
bb
28
e6
c6
fd
15
cd
be
ff
45
fe
02
35
af
1b
1d
f3
04
e3
e5
f2
9d
08
2e
9f
19
ce
41
1b
c2
34
29
e4
45
f5
31
d9
06
f7
1d
c7
dd
58
d5
b1
44
c2
04
ec
33
25
d8
26
f7
dc
b6
0e
11
f8
52
fd
2b
30
bb
2a
ec
38
e4
c2
12
e5
b5
f2
d5
21
f6
ae
ea
ef
1d
d6
ad
13
32
e7
da
cf
ca
b8
1b
f4
37
13
2d
34
f8
0b
2b
07
ec
00
43
0c
c0
21
0b
df
e1
fc
d5
ff
09
de
ec
12
36
51
07
59
ed
e5
2d
40
2d
da
c1
a2
0c
fa
22
b5
df
0b
f6
38
18
26
fa
ce
16
c2
e6
ef
ed
28
df
f7
e0
e8
ed
d5
be
ea
11
50
f9
38
1d
d3
4e
b5
24
22
fb
12
f1
2d
16
ec
f4
2e
f4
15
40
23
07
ea
3c
43
1c
61
e1
02
b9
bb
e1
d1
db
18
f1
de
2e
fb
04
31
b8
0d
d4
d9
1b
16
f5
b1
cc
46
1d
2d
dc
e1
ed
cc
f9
ea
da
e6
21
e3
08
05
fc
59
15
ec
29
00
0b
2a
00
2b
04
4e
31
1c
da
e8
15
c8
c7
c0
fa
de
c7
f6
df
30
05
32
cc
37
1f
1c
f0
db
f0
d4
5c
e4
06
1c
e7
0d
03
fb
df
c5
0c
c1
37
4a
cc
f0
30
db
2a
fc
43
f8
2b
2f
f3
07
28
f8
09
e7
13
ca
be
e5
cf
ef
26
dc
c9
c9
e4
02
c3
d4
f7
bf
35
d8
12
f0
27
2a
25
f0
e2
dd
dd
2c
c6
4e
e2
f5
d0
14
a3
dd
e0
0b
e5
0b
09
22
fc
df
51
d9
3f
00
2b
25
06
28
f1
3d
01
dc
f2
4d
f9
13
29
23
b0
e4
be
d1
db
c9
0e
c1
17
1c
13
c9
c6
2f
f9
e5
2a
b7
1a
c5
f5
1f
15
f1
cf
01
d5
00
05
21
b9
ff
02
3e
e9
2b
f6
c6
36
ae
e9
f2
03
1a
f6
d1
29
f9
df
0d
38
e0
eb
f3
d7
3f
2f
14
28
fc
1a
3a
00
1d
d3
f1
c0
de
02
d6
08
26
e3
fe
04
15
da
f4
40
a9
b4
b7
bb
41
e1
e6
ff
f7
de
b2
05
1c
e1
b9
c3
fc
17
de
e2
ec
13
01
ed
4e
df
c4
01
fa
e3
0f
0a
e6
3d
0b
b6
0b
bb
d6
0d
b5
1e
ff
ba
e3
b3
39
e6
19
b2
d3
e8
d9
c9
fa
01
08
14
19
f1
2f
ff
12
f5
18
12
da
c1
f3
05
40
ea
28
0e
d3
0f
24
e5
ce
32
36
b9
32
ff
36
f9
b5
03
e4
f9
ec
28
53
e9
06
0e
1d
c4
39
cf
40
2b
13
1b
be
5e
f0
e5
39
c7
cf
d7
1f
f3
db
31
ec
22
15
af
e2
4e
f3
e8
fc
e5
1f
e3
62
48
4c
ea
f3
da
04
ff
03
f1
5b
2a
d7
2d
e9
f2
f6
03
fd
20
3d
e1
e3
0e
d8
42
de
d9
eb
ce
2d
0f
57
fb
cc
fe
ee
45
36
09
d3
fd
07
ca
c2
e1
24
ea
d6
c6
e1
23
25
2a
b4
36
d4
c8
30
d6
28
d8
af
19
be
ec
ff
dd
d6
25
f1
fb
13
42
fc
09
40
12
1e
fa
ee
23
09
2a
e8
e1
fa
18
10
ee
cc
3a
a2
1c
f2
07
02
0e
2e
35
e9
06
4b
f1
f2
f7
00
f6
32
28
39
1e
4d
e2
ec
35
cd
cc
db
e6
35
fb
d0
c8
26
02
dd
ef
27
09
e5
d8
e2
c2
d3
08
11
ec
43
c6
03
d3
f0
17
f5
d7
bc
10
27
c7
e1
0f
00
c4
ca
da
05
db
d9
08
1b
10
f7
25
15
13
46
0b
d9
26
cd
0b
05
09
b3
eb
f1
ff
ff
d3
e2
cd
1f
18
1a
54
44
d4
ed
1a
2c
dd
1e
cf
21
44
28
e8
0d
ea
f9
d8
e6
f4
1b
ce
3d
be
46
d6
21
ce
11
6c
f8
53
1e
c4
e6
29
16
e9
01
14
45
f3
03
03
19
20
20
f8
1d
eb
c7
0d
33
e5
c6
14
cf
d2
00
59
c4
5b
21
d9
0c
2c
ba
e1
cc
03
db
e0
58
a9
f7
12
23
ef
e5
22
dd
f2
df
f5
c8
c6
13
ef
e3
11
07
0a
14
1e
38
0a
e6
28
0c
f9
be
43
07
2d
b7
47
26
49
e8
01
04
f7
c1
c4
42
13
0d
b4
bf
19
dd
f4
d5
06
ee
40
e5
d6
de
22
d9
cd
36
30
f6
cd
f5
cc
d6
9f
02
b7
30
0a
29
0b
16
07
fc
09
f8
23
04
01
15
1e
e7
0a
24
3d
fa
0f
00
c8
3a
42
37
07
37
1d
dd
fd
33
3d
cc
fc
ec
d8
b2
28
2d
19
e9
e4
52
0b
20
f1
be
ef
3e
e5
e5
06
fb
12
43
29
e5
01
d9
11
c5
f9
0a
fb
06
ee
f3
e1
ef
25
b5
f9
0d
3e
2b
c5
d7
41
d3
26
2a
f8
13
e4
e9
f8
06
3b
18
f1
3a
48
cc
3f
d7
51
46
f9
26
16
16
21
f1
c8
2a
27
37
f7
2d
12
fe
f1
ea
f5
e6
08
2b
31
23
18
20
04
99
39
00
d7
2c
e8
d0
e5
df
e8
aa
ba
1f
43
ea
de
ec
c9
f4
e2
c2
27
d8
0a
b2
45
15
d0
df
14
48
16
0c
19
5e
05
ff
cf
51
35
fc
35
16
0e
05
5d
42
2f
f7
db
f6
c2
d7
e7
03
c3
09
01
fc
ed
0b
e5
c6
0a
17
18
e6
13
f5
e7
18
c6
fb
22
07
ed
3f
02
d5
f0
45
03
1f
ef
af
f2
2a
1d
f9
d8
3a
11
f9
1b
d7
e4
fa
c4
d8
05
e6
f3
10
c3
c3
23
c8
c0
c7
f2
29
20
1b
0f
ef
e5
da
39
ba
fc
d5
f5
d3
0a
23
9b
ea
eb
2a
10
33
38
e5
1a
46
3a
f1
2c
28
fa
32
ca
b5
1a
38
c6
1c
28
df
2b
07
17
ef
f9
e6
dd
19
1b
f1
2b
d1
b4
26
e8
04
cd
ef
44
c4
5c
4b
c7
09
12
31
0f
2c
c9
41
ef
23
44
11
0b
01
24
0b
07
e5
06
df
13
05
3e
ba
4a
0d
14
fc
0f
58
4d
cf
2a
e9
10
5b
c9
1e
11
1c
37
0c
22
39
b8
22
05
2d
f0
0a
01
fd
e2
20
ee
d2
48
df
ff
e1
d8
0c
e8
26
f7
34
b6
0a
cf
26
dd
29
e8
16
fb
08
d5
2a
d5
37
b1
fa
32
ee
02
e7
ef
0f
9b
04
e8
d2
07
9c
02
eb
ad
1a
01
1b
12
c4
08
fc
0a
35
f6
0b
34
1c
02
e6
d4
35
11
52
06
0a
d0
0f
c3
f7
1b
d0
c4
ae
18
ea
d3
08
fe
ea
f8
e8
3b
06
1f
1a
d9
0b
e4
11
26
e9
20
02
43
02
e5
0c
db
f6
ff
0a
24
00
10
0a
f7
0c
3b
da
ea
13
fe
d4
0d
ee
0f
dc
f8
5c
aa
47
05
00
37
bd
d7
0b
fb
1a
04
35
e9
14
0d
07
09
bf
0c
ed
c8
26
d3
b4
d7
08
40
e4
fa
01
5e
4a
e1
bb
e6
1f
c2
f8
47
ef
ff
32
d3
41
fe
f3
48
31
30
ca
0c
38
28
2e
18
5c
35
1e
dc
1e
ed
4a
e7
4d
03
de
db
38
ba
d4
1d
ed
22
45
e1
de
f1
db
3b
31
ef
11
fe
15
04
f4
c9
bf
10
37
f5
0b
5e
23
0c
10
13
61
34
c8
ba
d9
4d
0a
05
41
41
27
f8
ba
2e
05
ec
05
0f
2f
e3
e1
eb
2d
08
2e
c5
1e
08
da
cf
04
1b
d8
0e
3e
2d
08
1e
e8
da
e0
07
e8
e0
ea
ec
03
ee
f7
dd
f5
c5
10
24
e4
e3
fb
fb
27
1b
01
f0
ba
f8
a7
11
cc
da
f2
0b
21
16
d7
3d
19
e0
2c
fa
6b
43
f4
1e
c2
d5
49
fe
16
2e
f8
f1
23
c6
01
df
aa
c3
dc
da
f3
00
3f
13
d5
e5
c6
28
e1
17
32
e8
ea
bf
1a
e2
3b
fb
24
ec
09
0a
cb
1c
fc
cb
c5
2d
aa
ed
ff
1f
23
03
01
da
08
2d
d1
2a
02
d0
d1
fc
18
bf
38
d3
06
d4
1e
ce
59
d7
e0
1e
08
f8
cd
3d
1f
0b
13
f4
d5
e4
04
08
d8
1d
eb
ca
dc
3f
16
05
36
45
33
ef
30
e4
f9
b2
e3
e9
3b
d1
20
49
db
10
eb
2a
0e
a9
03
5e
af
66
41
e9
e0
1c
03
31
0e
ce
b5
e1
19
bd
f1
08
f7
e8
cf
1e
03
b3
2a
3f
d5
3b
d9
eb
d5
26
1e
08
62
07
fe
0a
2c
f7
b8
d5
c9
ee
2c
da
15
06
f3
00
37
26
1c
d7
28
f5
f4
ec
18
16
48
d2
25
51
0b
cb
2a
35
30
36
1c
c7
10
27
4c
f9
bc
f5
15
e4
14
3f
3d
d2
3a
bd
38
01
13
ca
e3
64
f0
55
0f
4f
e1
cd
ec
fc
c3
91
18
d0
f6
2e
f9
5e
f4
e0
d9
f3
0a
e8
13
07
09
e8
11
43
0d
f2
f9
ef
27
1a
1f
fe
c7
d8
0f
0e
f9
de
58
c9
12
1c
d8
c9
c4
2c
df
f3
f2
c3
f3
d9
13
e0
1d
09
16
da
3c
11
19
d9
de
6a
ed
d9
90
1e
f9
2b
a9
da
02
31
f8
e2
fe
48
25
d6
3e
db
eb
1a
ad
d5
05
eb
23
af
dc
2b
c8
00
d9
47
02
ad
42
06
da
13
20
10
eb
10
fa
cb
03
f1
3e
cd
d3
45
b9
f0
ee
05
1f
e5
08
15
d9
02
09
16
de
47
09
2c
f4
0b
3f
e2
48
16
f8
e6
f4
e4
2c
de
f4
23
d9
dc
2a
44
00
e9
0f
eb
ca
bd
df
c0
f2
14
21
f8
3a
f6
2e
ee
10
f1
2e
cc
fe
43
50
ce
0e
e1
f4
e2
ee
cd
0c
f4
cd
10
1e
b7
d5
fc
3d
d2
41
b7
ff
db
3f
e8
0a
f4
32
fe
cb
2f
e4
e9
f4
f7
54
fc
d7
f6
e1
42
2e
fa
d9
14
0e
bb
f5
66
d8
1e
de
fb
ff
d9
41
2a
cd
31
d7
fc
cb
39
2e
c4
3b
2b
21
1a
e9
32
08
43
00
e7
c6
ef
f5
9f
fd
0a
27
1c
f1
f7
07
1e
f9
fb
f8
32
06
11
1f
fc
13
09
ab
da
f5
fd
d1
cb
49
47
cb
42
fa
d7
eb
22
ac
e3
d5
ef
1d
2b
14
1d
04
c2
aa
df
15
2c
1a
fb
13
ea
fe
40
30
06
0b
21
48
1f
21
42
ef
14
f6
51
0a
35
df
08
c3
28
ed
2d
3a
dd
d7
bf
d0
52
f4
de
25
d5
e2
00
e3
b3
14
3a
10
aa
fd
1b
48
d5
07
13
d8
9b
19
03
10
2b
20
f4
d6
35
0f
d9
d3
d9
0a
e1
00
3c
3e
0a
01
1c
e2
48
41
ea
d2
ca
f9
bc
1b
00
ec
06
17
1a
c8
d5
d0
e8
16
ec
12
4c
29
36
21
1c
05
0c
21
fb
d5
1f
bf
07
17
21
5e
10
e7
c9
e2
d9
06
61
29
30
05
b9
d9
22
e8
3e
12
1a
d9
17
27
2e
e1
f7
ec
37
e6
2a
15
42
0b
44
f8
f1
11
df
f8
cc
64
19
26
00
e1
ff
e3
f4
19
11
29
2d
f4
c2
f4
37
f4
00
02
00
d3
fb
39
f9
36
ab
ca
0f
f5
ed
03
fa
e3
1e
cb
ae
03
e2
16
20
5d
f4
c9
37
34
26
e8
30
38
b3
23
39
d0
de
14
11
18
f3
fa
0a
24
fa
bd
25
fd
f7
52
f4
08
16
1a
0b
19
df
39
c0
3d
25
c8
e6
55
b3
14
27
df
ca
da
01
11
14
13
4d
3c
f5
eb
49
fb
0b
f2
ce
81
1c
f3
e6
cd
2c
c1
d2
f9
c9
0d
07
04
f9
15
ae
6b
f9
07
ef
b0
04
29
4d
40
9e
4b
2a
33
31
1c
f5
06
30
13
a6
25
24
e3
20
c0
4e
1a
ee
13
67
04
db
0d
df
ef
3c
47
1a
05
28
3b
0c
fa
e1
01
c0
dd
ec
d9
e4
24
e4
d7
33
09
f9
e0
42
be
f7
b2
bb
2d
fa
28
0e
05
fc
1f
ff
b9
c2
ed
c9
cc
d7
bf
e1
f1
f0
42
e8
1e
27
ba
3d
e1
dc
44
1c
f8
50
11
be
d8
a2
c1
21
02
0f
23
da
f7
c6
15
02
f1
b5
2e
cb
02
c5
19
ea
ce
e3
e7
b2
02
27
d0
19
09
17
c5
f8
cd
f6
1f
26
06
fd
15
20
f7
c6
f0
14
2b
de
42
ed
ec
fd
15
17
ba
1f
f3
3f
19
0b
10
40
fe
4d
2b
f9
27
1c
ec
27
fd
fd
b2
1e
19
e3
18
d6
4a
f5
08
50
05
e8
ec
26
2b
10
dc
4f
f4
f2
d7
f0
46
fc
14
26
ca
f0
e7
f4
d4
09
f5
14
b6
34
c4
ed
0a
11
a1
43
ea
c2
2f
42
f2
fd
dd
0d
cc
da
c6
18
1e
e0
eb
ff
50
38
6a
24
cc
1f
0a
f3
a5
0d
13
0f
d7
44
16
46
14
e2
00
fc
bf
04
3d
03
0f
d4
bc
e9
e5
ef
15
f8
21
3f
af
16
fe
26
d0
f0
17
3a
e2
ef
d2
b9
d1
b3
db
94
45
f5
12
02
de
25
e9
01
18
1d
11
e4
21
fe
09
25
ec
db
09
e5
01
d6
32
5e
53
e3
16
35
f4
dd
39
1e
e4
0b
eb
04
c1
16
47
22
ee
0e
48
18
f2
cc
e8
ef
34
0a
30
d4
24
f4
32
d8
10
f7
a6
1f
db
f8
17
c5
22
ec
df
f8
f8
f7
c0
c4
d1
24
