ffffeaad
000000b8
000007ef
00000907
0000065f
000000d8
000007f4
fffff045
fffffd79
fffff3ee
fffff058
00000020
0000008c
ffffe9cd
00000111
000017ef
fffffa10
000006c4
fffff81a
fffff5f7
ffffef8b
000006b2
0000053e
fffff42f
fffff103
000004cd
000007a1
000017b9
0000094c
fffffb6c
fffff5ce
0000043b
fffffe20
ffffeaee
00000a7e
000008ed
fffff852
0000048f
ffffff88
ffffffa0
000014b5
000001fe
00001563
ffffe546
00000a88
ffffe08f
0000046c
fffffb5b
00001054
ffffff69
fffffe1e
fffff23b
00001884
ffffeedc
fffff6f0
fffffec9
000008b3
00000d42
ffffeb17
ffffff02
fffff9c8
00000498
fffffe6d
0000027c
00000c10
fffffee1
fffff019
00000e1a
ffffefec
fffff60c
fffffa13
000013b0
fffff364
fffff12a
0000022d
0000023f
fffff30b
00000921
000005e5
fffffdb7
fffff2c9
00001318
fffff3b1
fffffa01
