e9
15
4e
2b
d8
a9
d2
3a
d9
0e
58
bd
c9
27
e2
dd
d0
bf
f9
f1
b4
3a
c6
b4
94
1e
12
43
a8
b9
15
b6
b3
b9
43
da
20
58
2a
12
bd
30
d0
fb
57
cb
43
d4
be
2d
93
cb
31
49
c9
bf
f6
93
ff
5a
00
c6
20
25
02
1d
5f
d1
20
47
b9
dd
38
dc
b8
88
35
fe
3c
c4
23
32
b5
39
39
db
ca
35
38
42
33
09
37
ba
2c
df
d1
c1
47
3d
32
3f
ec
37
e0
33
3a
b4
a9
d4
48
51
d6
1b
b9
32
27
a1
bc
39
b6
d1
c8
57
1c
c1
3a
c8
09
37
dd
27
3c
34
b0
4a
15
ed
49
c6
57
f4
54
d6
c7
42
4d
d8
39
d1
55
20
f0
cf
34
ca
c8
a2
48
f1
25
3f
be
3b
aa
c1
2a
c4
c0
5c
c9
ed
da
e9
56
b7
e6
3b
2b
f4
3a
41
12
1b
56
f7
a9
b7
ce
13
59
c3
45
42
26
a2
b6
c4
a6
cb
5f
b3
cb
16
c6
e2
33
49
a9
2a
b3
29
ca
be
d6
07
c8
d5
41
f2
3a
50
b2
cb
47
4f
d8
48
e4
4d
50
33
d2
4c
b5
42
08
4d
89
53
13
c4
06
4d
b2
26
b6
40
30
dd
b7
45
16
ab
cb
20
f4
cb
34
56
64
0b
b6
3d
bc
af
44
dd
3a
29
42
be
5d
0e
bb
d5
3b
3c
cd
2b
1f
b9
ba
56
dd
19
f0
f2
2a
04
3c
b9
f3
eb
3e
c6
c7
d5
3b
c2
b7
aa
cd
28
38
e6
3b
49
0a
2d
fe
52
5b
b1
bc
0d
f7
b7
d1
b3
ce
0a
4f
46
3b
37
2a
11
bb
d1
d5
48
26
db
bd
f0
ff
23
2f
cc
53
28
f3
f3
e5
b6
c7
2b
38
c6
bf
e7
e1
3b
06
4d
1a
ac
dd
39
2f
ec
c2
ce
39
16
36
e0
58
1b
a3
4b
2c
60
e5
66
c5
ae
fd
fb
48
38
af
1d
c4
fb
22
c3
f7
43
dc
4f
c6
c1
5f
bb
fa
58
51
bc
2a
47
f8
2d
53
21
c8
b3
c1
dc
ce
18
f5
4b
ca
fa
b2
44
33
38
a2
4e
b9
95
00
f0
b5
01
be
23
cc
cc
bc
a1
a6
f4
ba
e7
3d
df
2d
b3
33
45
0c
44
ed
33
41
0b
0f
56
d9
f3
0d
b4
1e
ec
25
fd
27
23
05
9b
e0
08
f7
c1
69
2f
42
b0
35
ba
42
f5
ce
4e
05
b2
cf
be
ce
4e
ae
5b
1e
bb
59
a1
1a
bd
33
ea
39
61
2f
a1
51
b8
95
54
5c
a3
de
27
06
ba
d1
c4
c3
f3
37
44
3c
bf
ec
3d
4e
c0
d5
cc
54
0a
b6
c4
f4
42
48
06
46
4c
c7
3d
38
4e
cd
3c
e0
a7
af
4a
40
ea
c9
b8
de
46
cc
4d
bc
31
27
40
d7
cd
3c
50
bf
d6
3e
cc
4a
aa
00
cd
9d
bc
38
16
39
16
bd
40
2e
f9
b8
c9
e7
b1
bc
93
54
c9
b6
2c
4c
15
2b
b0
54
2a
57
3f
00
30
2e
e7
e7
3d
46
cc
fd
36
e2
42
be
7f
a7
56
ec
c0
f1
55
e3
ab
36
30
d5
c7
f9
cf
3f
c3
13
d3
b4
10
32
39
3a
c5
3b
c5
3f
03
21
6b
20
dc
be
ec
d0
b7
d0
0a
dc
e6
55
46
36
3d
32
a3
dd
3e
bf
c6
bc
53
81
45
cc
4a
d8
0d
4a
ee
fe
c8
09
a8
19
af
f9
2a
c1
21
1c
06
c3
4c
6d
a6
e4
55
4d
b5
c0
ba
17
4e
17
61
ea
58
3a
cd
c0
ad
e9
4a
32
ec
aa
3c
f0
47
29
d4
0d
c2
0b
35
c0
53
d8
53
c3
b7
d2
5f
24
3a
a2
c1
1d
d2
db
28
e2
aa
d1
be
c4
d4
cc
b0
ff
37
4d
44
3c
c8
22
51
1d
32
33
0a
cf
2e
46
97
d4
57
3d
22
fa
26
1a
41
cd
b8
d0
c5
c6
39
d1
ef
b2
0f
df
48
29
b0
d3
ac
cd
2c
c0
b4
f7
01
27
26
30
ca
33
33
4b
cb
19
bb
c7
b8
1b
36
f9
28
c7
f1
28
5d
da
a7
20
4f
d9
02
bf
4d
f8
b9
cf
45
b8
1b
f9
e8
4b
44
d6
1b
b6
af
41
0a
6a
1f
3b
97
3a
24
cb
b6
45
60
ae
f2
