5E
2D
0E
39
02
D9
F4
CD
11
74
2F
11
25
B9
2C
44
BD
EA
D3
22
3F
56
D7
FA
1F
EC
6A
77
C7
BA
29
C6
C1
BF
0A
D5
39
57
21
E5
F3
F6
3C
4B
51
4F
D0
CC
56
0E
19
09
79
39
4D
C8
35
10
FE
67
CC
B9
55
D8
E8
1E
67
D7
2A
79
67
2C
B7
2F
19
D9
1C
7B
39
56
04
FA
0B
11
23
47
27
40
78
6A
3D
FA
45
6A
D6
BF
E4
E7
59
61
F7
49
4B
1B
3E
05
E7
C5
D3
7C
0C
6E
63
46
38
D9
11
BE
6C
1F
19
CD
6E
56
E3
45
05
1D
21
56
3D
C8
48
64
6C
46
4A
E6
4A
73
61
FB
17
7B
D1
F4
D9
00
C1
DD
87
39
CC
11
34
18
9F
25
F4
BE
55
10
18
D1
12
08
FE
D5
F7
14
CD
2C
E3
6B
C9
75
B1
F7
02
80
A3
2D
86
EF
02
04
11
24
23
E4
1A
36
57
7E
77
3A
D2
1C
2B
7C
31
5F
EA
5F
2D
82
40
88
3E
9A
EE
3F
DB
DF
FF
27
12
18
ED
33
26
CB
6C
2C
5F
60
4C
61
4E
6A
67
3F
19
92
03
13
01
99
EB
F4
DA
00
31
1E
90
89
E7
7F
B8
78
43
79
1E
55
64
20
5F
52
B3
F4
93
3C
8E
16
1C
E6
E5
93
1F
0E
11
03
38
3F
BA
51
DA
03
53
C1
6E
65
FF
41
4C
38
F1
5A
2F
12
23
EE
3F
E9
10
EB
CE
35
49
E7
D6
1D
66
DF
F0
38
D3
5B
43
7C
68
70
BD
D3
19
DC
AA
93
DF
8E
BE
2B
93
24
C2
25
A3
BD
96
29
22
7D
78
BF
13
05
7A
55
3C
6F
35
68
3A
BE
FD
35
F3
3A
B4
2D
DB
F1
3B
1F
BE
40
E0
1C
1B
D0
C3
0A
1C
77
EF
FB
61
17
42
1B
38
FE
95
19
98
09
1C
C2
24
C8
3A
F6
EB
A4
33
2A
09
5B
68
3D
0D
75
54
D5
DC
14
44
CF
CD
A1
B8
D0
DE
17
2C
F6
9A
BE
21
DA
3B
36
1E
C5
5B
E5
42
EA
6F
DE
12
0A
1A
B7
72
CC
38
C6
C3
BF
4A
F1
B2
98
CF
27
1A
BA
01
9B
D0
1B
D2
D0
28
FC
12
F4
62
BB
3D
5B
29
3D
08
52
32
FD
C6
1B
3C
F2
07
8F
1B
C8
B8
EF
D3
CE
71
0A
0B
34
C5
40
4A
2B
1D
72
07
FC
E0
9C
F1
92
39
E0
B7
D2
1C
86
FD
A7
B8
49
3D
63
F3
69
1C
EA
28
0F
30
50
75
40
59
15
19
E9
96
27
50
FE
1F
BD
AD
49
99
46
43
3B
CC
96
C2
FA
36
55
3B
F4
61
3C
6E
DA
3B
C1
B9
DA
89
17
0C
F9
BC
C4
D7
F4
04
11
97
BC
C4
35
0E
BB
0C
C4
D9
04
15
45
01
20
01
1B
C0
3A
CD
23
E3
F1
FB
05
D6
8B
3B
F5
04
8F
DF
28
0D
A1
02
7A
F6
1E
FC
45
4B
B5
0D
CE
05
D8
39
A1
A8
23
F2
A0
CB
01
25
CF
9D
DF
FE
DD
46
CF
16
43
C3
26
47
F1
4B
72
C6
B8
23
3E
11
C5
36
D3
DD
C4
06
A5
45
34
3C
B2
CD
2D
C5
5F
34
43
00
14
28
05
1C
B9
05
B7
D1
19
23
8D
29
A9
2C
44
A9
BB
0C
D4
4B
2D
4C
F9
7E
CF
7B
EC
47
CC
32
55
6B
E2
28
71
DD
6D
13
F7
14
BB
31
E3
1A
06
B9
03
E0
38
23
61
DC
7A
CD
F5
C2
FD
31
F4
4A
3C
51
FD
63
3C
BA
34
C8
43
07
47
D3
04
A9
26
70
77
30
46
16
69
CE
F5
FB
40
49
E1
C7
C6
1B
06
BF
BD
35
37
74
09
65
D8
41
4D
C8
0C
53
B8
F9
B9
68
27
28
BA
3A
4B
29
31
F1
1C
17
4F
FF
71
05
F1
EF
7B
6B
45
DF
28
4F
0D
77
E0
EA
E9
0D
38
35
F7
68
C9
FD
F4
E8
F8
00
EB
FE
FD
FE
EF
F9
E8
02
F3
FF
F9
FD
E8
F2
F6
01
E8
F8
F1
FC
F9
EA
FC
00
F8
F2
FE
EA
EC
00
F1
F0
EC
03
F4
FE
ED
E6
E9
F8
F9
FE
FC
E9
F6
FA
FB
EE
F7
F7
EC
ED
FE
F3
F8
FE
F2
F8
04
04
F5
05
14
FD
10
00
F1
E7
FB
08
F9
F8
01
FB
EF
F4
EF
F2
FB
F0
FB
FC
F7
F4
E6
FA
04
FD
15
0D
0F
09
13
08
F5
EB
ED
FA
E4
F1
F1
00
FB
F4
E9
F3
F6
F2
FB
FA
E7
F6
DF
DF
F5
EA
FA
05
FB
F2
06
FD
EE
F0
FF
F4
EC
02
FA
F1
04
F4
F5
FE
FC
01
F3
EE
FA
F0
D0
DF
F7
F3
0B
F3
04
0E
11
16
0E
09
14
03
03
F3
F0
EB
F6
F0
FC
FC
F3
EB
FA
F0
E9
E7
E7
E3
FE
02
EA
F0
FA
11
09
03
1D
0E
23
10
04
00
03
E5
E9
E0
E9
E1
F1
FF
F1
02
00
F7
EE
F4
FB
0B
0D
17
19
00
F7
05
10
13
0F
0C
02
FF
F9
F1
FE
00
E4
E9
F5
F6
00
F3
ED
ED
F2
00
0A
06
1A
0B
06
11
0F
04
00
13
00
08
01
0A
06
01
FA
05
D6
F8
F4
00
F5
E7
EB
ED
FD
F2
EE
FE
16
0E
16
20
10
EF
CD
F4
0B
0C
27
2F
10
FE
19
ED
C2
F0
FE
E8
FB
F2
E7
EF
F5
FA
0D
10
2A
2B
16
03
EA
C0
B3
D5
FB
2A
2B
31
2A
28
36
06
B9
E7
EA
F2
00
FE
DE
F6
0E
0F
2D
3C
2B
19
0F
ED
D7
C0
AA
CF
01
13
1A
2F
5C
64
56
35
E7
E9
FF
F5
FC
FE
F6
0E
2F
2D
2E
1E
21
0D
0C
F7
CA
BC
BA
E7
07
FE
27
3A
4F
72
7F
36
F1
E0
F5
F5
EF
E7
FC
13
34
24
34
16
1C
0C
08
F8
D0
CA
D8
FD
EA
04
19
2B
40
56
56
22
FA
E1
EC
FA
ED
FB
FD
FE
2E
28
32
17
0C
23
28
FC
DC
D1
F1
FB
10
08
1B
18
29
34
23
10
EF
EB
FA
F1
EE
F4
F8
F5
29
34
39
39
2E
22
07
F8
D9
CF
EC
EA
26
24
26
1F
0D
13
04
F6
E9
F3
F7
E9
F3
FC
E4
E2
10
38
4E
6A
48
45
17
03
E2
E6
F8
0F
23
1B
02
FE
EC
E2
DD
DD
F2
F2
E6
01
E9
E7
CE
BC
04
17
49
55
6C
53
4E
3A
FC
FA
1B
29
36
0D
FB
0E
EF
E3
E1
DB
EF
F0
FD
FE
FB
F6
C2
BD
C8
E8
22
2F
42
64
64
45
09
EE
19
14
0B
0C
F4
08
E8
EB
E8
E1
EC
F0
F1
E9
EB
F6
B7
C0
CA
E2
F6
07
15
32
33
19
F6
FE
10
05
11
03
F6
F7
E9
E7
E9
DB
DF
E1
ED
EE
EF
E8
D2
BA
C9
C8
CC
D3
ED
04
F8
1F
18
19
10
FB
FF
FC
01
F5
EF
E6
DB
E7
F9
FA
FD
FF
F1
F9
E1
D5
D4
C5
E2
E1
ED
05
17
29
2F
18
19
01
10
0B
E1
EC
D3
E3
DA
E8
EC
EF
F1
E9
EE
F2
DB
BE
CD
EC
EE
FA
00
0C
19
43
33
32
1C
04
01
E1
D2
D1
CD
DE
E4
E8
F7
F8
F4
00
FF
F4
DC
C6
BB
D5
F3
0E
FC
03
0D
24
25
24
1D
10
EB
E1
CD
DE
E5
F0
EE
ED
FC
F7
E8
F4
FA
FA
F1
EB
CF
B9
D5
F0
E4
F5
0A
08
0E
06
18
14
F5
EB
FE
F9
03
EF
F0
E3
F5
EC
F8
E9
F7
F7
F5
EB
FC
DD
C8
AD
BB
E0
D0
D1
E0
F1
FB
FD
0B
18
16
1B
17
01
F4
F7
F9
EF
00
EF
EE
E9
F9
FF
FB
01
FD
FA
F2
EF
F9
FC
0D
0A
0D
FE
00
F5
F2
0A
F8
F2
F3
F4
00
F6
FB
F3
FD
EC
FA
E8
F0
E8
00
ED
EE
E8
F0
E6
FE
FE
01
F5
00
FC
F8
E9
F3
F9
02
F5
FB
02
FB
F3
FD
F8
00
FB
FC
F5
F7
F7
F8
F1
F4
FF
03
01
FC
F2
F7
F0
F3
01
F6
F6
F3
04
F8
02
FF
00
ED
F6
F9
FD
02
05
EE
03
EB
05
F8
F0
FA
03
03
FE
F0
01
02
F1
FC
FE
FB
EA
F8
EF
EA
03
F5
F3
F4
F3
FB
04
F1
00
FA
F5
0A
0B
15
1E
16
09
FB
03
06
FC
FD
03
F2
FF
00
FC
EB
03
F4
F2
EF
04
F0
00
FD
F0
FD
F0
F0
E3
EB
F2
F3
E4
E1
E0
EF
E3
E4
F2
09
FD
F9
EF
F2
FE
F3
F5
F7
F7
F3
F5
EC
00
EA
E3
C2
DE
EC
F1
E9
F0
F1
DE
07
0C
06
02
F2
DD
EA
FA
F3
01
04
03
F6
F8
F0
05
E4
E2
ED
EE
EF
09
02
0E
0E
E1
EC
F5
FD
13
0F
04
FC
E6
DE
E7
02
F4
E9
FD
E6
FC
DE
DF
EA
E6
EC
FC
0A
0E
13
17
1D
0D
02
01
FA
06
04
E7
FB
DC
E6
ED
F5
F4
01
FA
F7
EF
D6
D5
D3
DF
E3
EF
F9
0E
25
26
25
1C
12
0D
02
FF
FD
E3
DC
C8
C2
F6
00
FE
ED
F5
DD
EB
E9
D9
E0
EA
EC
FA
00
0D
19
26
27
19
05
FC
02
FA
FB
D9
AA
BA
C7
F3
EF
EB
E9
EB
DF
D8
D8
F7
F1
F8
F9
FD
07
0D
0E
16
1D
F9
F5
F4
FC
E8
D1
C4
A4
84
A7
DC
F3
01
F5
F1
D9
E5
D9
F7
E8
F8
08
13
09
FD
F0
0A
0E
FB
FB
FD
03
DF
E2
BD
8C
80
96
DF
FF
F4
F0
F3
DE
E7
F5
F5
02
06
15
15
0E
F7
EA
FA
13
2B
1B
18
23
23
0F
E8
DF
B4
B7
E8
EC
F6
EE
EE
ED
08
FE
FF
F8
0A
24
09
E3
E2
EC
21
34
3D
38
35
3B
40
3E
36
2E
F1
F5
EF
EC
EB
02
E6
F9
FD
10
02
0A
16
13
F3
EE
EF
26
3D
4D
49
3C
23
20
1A
1C
10
09
E8
EC
EF
F6
00
00
F5
F6
00
03
FB
00
14
07
01
FA
1C
29
37
3C
47
26
17
09
E7
F0
02
E9
D6
E9
EC
F5
EA
F1
EB
FF
05
F3
FA
05
16
0A
18
1E
22
2A
41
43
4A
1F
FA
E5
D2
EC
EF
E3
D6
EB
E2
F0
FE
F3
EA
DD
E1
E1
F2
0D
1F
24
31
32
25
2E
2C
38
33
02
E5
D4
E0
E6
EC
E5
DD
E2
EF
03
E9
F1
FA
D3
CA
C7
DA
01
0D
2D
26
27
39
2B
3B
24
05
F3
F2
EE
E2
ED
EC
EA
DF
E6
E7
FB
F0
EA
EF
E0
BF
C7
C2
E8
F4
15
19
1D
19
1B
20
13
F3
E4
ED
F5
F4
F3
DC
DE
EA
EB
02
EC
FF
EF
E4
DD
CD
C3
D1
E2
EE
F4
09
02
02
0A
0A
FB
0E
EF
FF
04
F2
EE
F1
EF
EE
E9
00
F4
F7
00
F5
E1
D7
D9
E9
F6
E4
E3
ED
E3
F2
FB
03
0E
0D
FA
06
F9
FB
E8
DD
F1
03
FC
F1
FD
ED
F3
E2
DD
D7
F2
FA
06
0A
0C
05
F7
F0
07
FD
F6
F5
0B
02
0D
01
04
DF
F1
F2
E8
F7
EE
FD
FB
E9
ED
EF
09
11
F5
04
0D
04
FE
F1
FF
0F
03
FE
02
04
02
F6
04
F4
EE
F6
FB
FE
F4
03
F2
F6
E6
E1
F4
06
F5
05
F3
F5
F6
0B
0E
0D
0F
08
FE
FA
07
17
0B
0F
FB
F7
E5
F6
FC
FC
FD
F4
EE
EF
FB
EF
E6
F3
EF
EA
EC
D7
CF
C7
D9
DC
D5
E4
0D
1B
10
0D
FD
E6
FE
FD
FF
03
F3
FE
E8
F3
00
03
00
01
D8
EF
DA
D4
DC
E6
D8
DE
EA
F0
13
22
2B
FB
06
F4
F3
ED
EF
F0
03
ED
FB
EF
F5
0E
0C
00
13
09
12
12
00
11
FA
E6
F2
F7
FA
0A
09
03
06
F6
FA
F0
EA
EA
FC
F0
FF
FC
02
03
F5
FE
FB
00
FF
FA
E6
FA
EB
EA
F8
F4
02
F1
01
FC
EF
01
03
F0
F8
F6
F3
ED
EC
FD
ED
F5
F9
FB
F9
F2
F0
F9
F3
F5
E9
FB
E6
E7
F6
F4
E8
01
EA
F9
F9
E9
F5
FE
FD
E5
02
F0
F6
F5
DE
EC
E3
EA
E5
EC
DC
EA
EC
E9
F1
EE
EB
F9
FE
02
E8
FA
F3
EB
F0
F1
F3
02
FF
E7
F7
F8
F4
EB
DC
CB
CD
CD
D2
D6
DD
E2
DD
E2
E6
F2
F5
F4
EC
F2
EC
EE
F9
FC
F2
ED
FD
02
E6
EE
D4
D9
C8
CF
C9
B9
AF
C9
C6
CF
ED
ED
EC
08
F8
08
ED
FB
07
F9
E8
F2
E5
FB
E9
E4
DB
F1
E2
CC
DF
F2
01
08
E5
E8
07
FC
05
FB
EC
F1
F5
12
23
19
14
F5
04
04
EA
EA
EC
EA
D7
E6
F8
15
20
12
35
1D
08
15
11
09
1F
0C
0E
1B
17
13
2B
15
14
FC
E7
F2
FE
01
D6
DA
E5
02
12
20
2E
05
0B
05
FE
FB
F6
F6
03
09
1D
1E
F9
24
3F
46
36
FD
EB
F4
ED
01
D3
C1
EF
0B
0D
3B
18
10
03
E0
F0
DE
FD
F0
EC
FC
0C
18
22
30
54
6B
49
1C
E9
FB
E6
FC
E9
CF
F7
15
27
21
21
0F
0A
E6
E8
B5
C8
ED
FD
0D
1F
16
27
1F
4F
7F
67
05
F5
EC
E8
E2
CD
BC
F4
25
20
29
2B
07
1B
06
D9
99
A8
D2
08
19
1A
24
2E
32
57
78
54
08
F5
FB
F1
D8
C0
DF
F6
23
34
32
41
38
2B
1D
CA
A6
B9
CC
E1
07
06
03
12
23
32
79
62
12
05
F9
DE
E7
C1
DD
17
2F
4A
40
3E
33
27
1A
E7
C5
D3
FC
F5
EC
E9
E5
CB
ED
07
33
37
03
F8
FC
ED
E1
DA
E4
17
1D
39
2D
3D
2D
3B
34
1C
E3
06
02
E3
ED
04
FA
F4
DA
C0
D1
0E
0D
F4
F8
F7
EE
D8
12
1F
14
27
3C
25
38
50
4B
3B
04
19
0B
00
18
26
1E
02
EE
A9
C1
EF
02
F8
00
FB
E4
FE
25
0C
1A
1A
26
25
33
46
40
30
27
1E
1C
20
1D
10
02
E7
DA
B0
BB
DC
F2
FA
04
F1
F9
F4
10
EC
0B
07
2B
46
13
11
40
3B
1E
31
2C
17
24
FC
CE
DC
E0
BD
D1
DC
F0
E7
FD
F6
E7
F4
E0
EE
05
09
2A
07
F7
01
34
38
11
26
34
32
0F
EC
E4
DB
DF
E9
D5
EA
EA
FE
F7
EF
E6
D8
F6
0F
19
15
15
FF
EB
0F
1E
20
0F
38
2F
1C
03
EF
03
01
F0
FD
00
E0
EF
FD
E6
F0
F2
E5
F9
1C
41
1C
F2
EE
F8
F8
16
0F
10
18
04
F5
F3
F7
F8
F0
FA
0C
FE
DA
EE
EA
FE
F6
EA
CE
EE
15
20
11
01
DE
D1
D3
D7
EF
DC
00
F7
F2
FF
ED
0A
F9
20
1D
FD
E1
FA
E8
00
02
FD
D3
E5
0C
09
03
E1
DD
C0
C7
D5
EC
DF
02
02
F2
EE
13
01
10
44
1B
0E
F3
FD
03
F0
F9
FC
F1
E0
DE
E3
E9
F0
F4
D0
E3
D0
E7
E3
EB
EB
08
FC
08
28
48
31
2D
F8
E8
EE
F8
03
FD
E4
F6
E0
BC
D9
DE
FE
E6
06
02
20
1D
05
F8
F3
06
18
29
32
43
2D
1F
FA
FB
F8
EC
FF
F6
E6
F0
DF
BC
B8
D3
FC
08
0A
0C
21
21
24
0A
1D
11
1F
2B
47
2F
24
1E
FB
F0
EA
F6
EC
FA
03
E6
D7
D3
CC
E0
04
22
17
26
1C
14
1A
22
2A
0F
27
31
27
16
07
17
F4
F1
F8
E9
FA
E5
F7
EA
F4
E7
DC
EF
E2
DD
0F
0C
0B
16
25
1B
1F
12
06
00
09
05
0D
FA
F4
FF
F3
FB
E6
FC
FF
F2
01
F0
04
00
F6
FC
05
F3
14
09
EB
E9
D8
E2
DF
D8
FD
F8
F5
FE
F8
F1
EF
F8
EA
FC
04
EF
FD
F7
FE
E7
FD
EF
E2
FF
F2
F0
F0
EA
F3
DD
DE
ED
FC
FE
EE
E7
FE
F4
FC
F1
ED
0B
EF
EF
F3
F7
06
04
0B
F0
F9
FF
03
07
02
FC
02
F6
ED
EF
08
0A
05
F2
02
0B
FA
09
F5
F2
01
F3
0A
F4
0B
F8
03
FC
06
0B
F5
00
00
FA
FB
0A
07
F7
02
FE
04
EF
0B
01
F6
F1
00
05
F9
04
F2
05
02
05
F7
08
0C
1D
1A
22
24
47
1D
12
05
FD
0C
0E
03
03
09
FA
F1
EE
F2
0A
02
01
F4
F7
FB
FA
14
02
13
F4
F5
0A
0C
12
0E
06
E7
15
F7
EC
E4
FB
FD
F8
F0
F2
FF
01
03
F2
09
02
02
F9
04
F1
F3
DF
FA
F6
F3
F8
F7
EA
EE
0D
03
01
F2
EE
D2
F1
E6
FB
F7
0A
0B
05
13
01
0F
FE
02
E7
E3
DA
DF
EC
FC
02
03
EF
FA
1B
0E
0C
25
0F
03
D2
F0
FA
FE
FA
07
F7
17
EF
FD
F7
F1
E7
F1
FB
E1
E7
CA
D2
DF
D0
F8
F4
07
09
08
FE
F0
D7
EE
F7
08
FE
EB
09
08
FB
DF
EC
E3
ED
E3
FE
D8
D8
CC
BF
C6
E5
FC
0E
18
00
1B
DD
BF
CF
06
EF
F9
0A
F5
02
22
F6
E5
F1
DF
EF
02
F4
03
EB
E1
E7
D1
FA
F8
06
0E
F5
EF
C9
90
B8
ED
F1
F2
09
ED
EB
00
EB
E2
EF
EC
EC
FD
EF
04
05
FA
12
07
FF
EB
FC
FA
EE
D9
9D
81
AA
E6
FD
F8
05
EE
FF
E5
D7
F0
EC
E7
E7
F7
F5
E8
E9
06
30
2B
01
FB
F4
E1
C3
B9
8B
90
B1
E9
F3
05
FD
FD
E3
D7
F7
E4
E5
EB
F4
F0
EE
E4
E2
FC
2C
27
FC
EF
F6
C5
C6
C1
AC
B1
DD
EE
02
05
06
EA
EA
D6
E2
C4
D7
F1
F2
F3
F3
0C
FB
10
29
0F
F2
DA
CC
D5
D6
D4
D5
F7
03
F1
04
F8
04
F3
DE
BF
DB
DB
CA
F9
07
EF
F3
08
11
28
30
1B
FA
E6
D0
DB
FA
FE
22
11
14
FC
08
01
FF
FB
F9
DE
EB
F0
03
FB
FF
F6
EC
E7
16
38
39
29
F6
ED
F7
FD
0E
21
1A
FE
F6
10
EF
FE
F8
EF
11
05
15
01
04
05
01
EA
FD
21
2D
50
41
06
ED
C7
F5
EF
03
0D
FC
FC
1E
0C
0B
09
F3
0C
01
F3
0F
13
0D
F1
06
03
13
1A
47
52
26
04
CB
CA
FD
01
0A
05
0C
06
1D
10
FD
FC
06
F6
08
07
01
F3
0A
08
FC
19
0A
22
43
56
11
DA
AE
DD
F0
0B
05
11
19
0F
1B
07
FA
FE
F4
02
05
04
DE
EF
F9
1C
F6
F0
0B
3A
45
2F
EF
E7
E8
F5
EC
FF
16
08
12
12
13
FA
03
01
FE
F7
FB
F7
C1
E9
F7
EC
04
14
25
1D
2C
11
07
05
0F
0E
FC
06
1E
FB
0E
01
23
FB
F0
FA
F8
F8
01
00
C1
F5
F6
0C
0F
11
1F
19
06
13
19
1B
20
46
2D
2B
0D
EE
ED
11
F2
F6
FF
04
02
F8
00
F7
EA
E6
DE
05
17
16
14
FD
F1
0A
22
32
45
40
2A
19
13
F7
07
0B
F6
04
F7
F2
ED
03
01
0E
28
FB
F5
F7
07
10
EA
E0
FA
F5
21
16
29
37
39
2C
09
E8
D7
FD
01
FC
EE
F6
04
FB
F9
FF
17
12
0E
ED
ED
F4
ED
FC
F1
F7
18
10
14
16
17
10
F0
E9
DC
EB
FC
01
EF
01
EE
F2
00
E2
F1
F6
DA
E8
F1
F5
F4
00
F7
ED
F0
D4
E2
D9
E5
D6
DF
E0
ED
0C
FA
06
F0
0B
0A
05
F8
F7
EC
D9
BD
C7
CF
C0
D6
D5
D2
C9
C1
B4
A0
9C
B0
BB
C6
E0
E6
FD
09
FB
FA
F8
F4
FB
02
05
FD
E9
ED
DE
DB
C5
CC
C2
A0
96
AF
BF
B8
BB
C7
E7
DF
EE
FE
EB
05
03
FA
FF
00
EC
EF
FD
08
00
FC
EE
05
04
07
EA
02
E1
03
05
ED
01
EA
F3
F2
E9
F4
F1
FF
EF
08
F1
E3
E5
EE
F0
F8
E8
DC
F1
01
F0
E6
E1
E5
E0
00
F7
E6
EF
F8
01
FA
F9
02
E5
EE
E6
E6
DD
03
03
EB
EE
02
DC
F6
F1
DE
E2
FC
00
FE
01
E8
F6
EA
F3
F5
F3
DC
F0
F2
E3
E0
F6
EE
EB
E4
E7
E8
F1
F9
E8
FA
DD
F3
E3
F2
FF
FD
FB
16
11
04
FE
DD
EB
DB
E9
E8
F9
00
03
E2
00
EA
FC
FC
E4
E0
04
F8
08
18
27
2C
69
58
5B
4F
54
2C
2F
11
00
EA
E1
D8
D5
01
EA
EF
F7
02
F7
FA
FE
1A
27
21
3F
67
71
72
7F
6B
5F
58
66
43
5B
27
E0
D9
DB
CC
DD
E6
DD
E2
F5
EE
F4
F3
0C
23
47
43
43
2F
2C
1B
16
39
2F
58
50
40
2D
0F
0F
F3
EF
B3
C8
E8
FF
E9
FD
FA
05
F6
29
3C
49
0C
2E
1A
38
25
34
42
44
52
2C
39
3E
29
1E
30
01
DE
CC
FC
F0
F5
01
05
FE
17
4C
56
1E
FC
09
17
31
3C
2F
39
57
37
42
40
50
49
3B
1D
1D
C1
C8
DD
08
E8
F6
E4
00
FF
35
35
18
05
F6
0A
24
2E
38
27
56
4B
42
50
49
48
44
1B
1B
C8
C4
DB
04
E1
E0
F6
0F
11
2B
02
E8
E2
D8
D8
E2
D0
EF
FB
23
1F
2E
28
2C
2D
2A
2F
27
EB
E7
F7
E7
FD
F3
01
FF
02
FD
EF
CD
9D
90
B6
AE
B9
A0
A8
D6
C6
F6
F9
0B
04
1F
FB
06
DE
EC
07
F8
E3
E8
E7
06
0F
EE
9F
9B
8E
96
99
AF
C6
A0
A5
C2
B2
CD
DE
01
14
F5
D6
D8
BB
EC
E5
F2
FA
EF
EF
EA
DD
D5
8E
83
96
B9
C1
D5
DA
C1
BF
D4
D4
BF
E9
FC
E4
D9
AA
B4
99
CE
E9
F6
E1
F7
E6
E7
F3
C3
9D
A0
BA
E5
EB
D7
C4
CD
01
08
D4
E7
F2
04
FF
E6
C0
BD
B0
CB
E9
ED
DC
F1
F7
DF
F5
C2
C4
B1
E1
F8
F1
F1
D7
EF
EE
F4
EA
FD
E6
1B
EF
E0
D6
B8
B9
D8
DF
FF
E3
F2
F4
F4
02
F7
D7
E0
F0
F0
E7
E9
D6
E1
FE
05
F2
DD
D8
00
04
06
E5
D8
C0
FC
FC
0B
FA
F7
E8
05
13
2F
E8
D6
C8
DE
F5
EF
E3
F7
0F
ED
D7
DF
EA
F5
16
F5
FF
F3
CE
0A
F2
F3
06
00
E7
10
3C
41
16
F1
CE
B7
B2
C2
B8
B8
BE
B1
D2
ED
0D
02
0B
F6
09
E8
DC
F4
06
02
F1
EC
FD
F7
58
68
4F
F9
E7
DA
A0
B6
AA
BB
D6
C9
F8
09
2D
1E
16
18
14
0A
05
02
06
03
00
EC
FA
FC
3E
54
39
37
06
15
17
E6
DA
F6
FB
F5
1B
23
32
40
2E
19
2F
0A
F3
0F
07
01
03
FF
03
F5
2C
65
4D
45
48
39
3C
26
20
09
1A
1B
36
29
38
34
2E
29
25
30
1A
00
FB
E3
E8
E9
E7
FF
36
3D
25
2C
23
38
10
16
2F
13
11
19
16
2B
1E
23
16
26
12
35
2B
0B
F0
FF
E2
DB
FB
F0
15
1C
2B
31
1F
1F
23
23
2B
12
0D
17
07
0E
24
23
16
16
1B
3D
21
F6
04
E1
F6
03
F9
F3
1C
20
49
31
44
1D
3C
3C
38
30
27
1F
20
13
2B
24
0B
FE
06
FD
07
0E
E8
E7
FE
DC
DB
F4
F8
31
1F
3E
3A
48
52
4C
44
3B
5B
51
32
1E
28
26
F0
B4
DE
DF
F3
03
EB
E1
F6
E8
DC
EC
DA
02
FD
0E
22
35
42
2E
4A
50
48
26
39
14
0F
FC
DF
CA
D7
D7
F1
E6
F3
F8
DC
F2
E8
DC
DF
E1
E8
F7
D9
EA
E9
E3
F8
DA
D2
E0
06
13
E0
F3
E8
E7
E8
E2
F4
F1
EB
DD
F8
FF
F4
E2
03
DC
DB
E4
FA
F6
FA
FE
F6
FE
ED
EB
EF
08
FC
E6
F7
E6
01
F7
DB
E6
EE
E1
FB
F9
FB
F1
EC
FB
EF
03
FE
FD
FD
FB
09
04
ED
F6
0C
ED
EC
04
F5
ED
FD
FF
0C
F4
F6
ED
F1
FE
FE
F8
F6
EB
EE
F0
F9
E8
03
EB
EA
E9
FA
EA
F1
FE
F1
F2
F8
ED
F5
FB
04
0B
05
05
EB
FC
03
0B
06
0C
F6
01
F6
E3
FD
E9
E2
DC
DD
CC
E9
D3
F2
EF
DD
F8
FF
E8
02
09
01
FF
FC
F7
FE
EE
03
EF
FF
F0
E4
F7
D3
D2
E3
D1
B0
A9
B3
C0
D1
D3
CF
CF
EF
F5
EB
F4
08
ED
F1
EC
06
05
0C
00
E9
FC
DB
E0
D2
D5
E8
C7
B7
BB
B9
A7
B8
DE
C8
E5
F0
FE
FD
12
10
EF
F0
FA
FE
F0
FD
FA
05
F5
FD
0B
03
19
16
05
FF
DF
CC
D5
D9
D3
D7
CA
E3
D3
E4
ED
ED
04
F8
FF
F8
01
FE
FA
15
35
1D
3F
46
41
31
21
17
33
15
24
08
FA
F6
E8
01
EA
D3
E9
E6
04
F6
FA
F0
FA
14
1B
28
3B
3F
4F
53
5C
3C
42
43
39
28
21
27
0D
0D
15
11
0A
D4
E9
F5
FE
FF
FB
EF
0A
15
32
38
3C
30
42
46
43
48
2E
34
3B
2C
3A
24
19
22
2A
0D
18
16
E4
F8
F3
ED
F7
0D
0F
2A
34
45
38
3C
3D
31
37
36
50
4A
4F
47
36
2D
30
1E
26
0E
17
17
FF
FE
F4
FB
ED
07
1C
1B
2B
4D
29
27
13
26
2D
34
1D
30
41
43
3B
30
1A
1F
16
22
02
FC
F9
28
17
F9
0B
01
19
19
09
ED
01
FF
EA
EC
E6
EA
DF
C1
CD
C9
07
0E
F9
F8
EA
F1
D4
D3
E0
10
F9
FA
0B
F1
08
08
E5
B0
B6
C9
D9
AD
AA
93
80
84
A4
BB
E0
E1
DC
D4
CF
C1
D0
A6
C4
F2
FA
0C
ED
F6
FB
FE
D6
95
B0
A8
BA
A6
B2
AA
99
BC
B9
B1
D5
F6
03
EC
DC
D9
D0
D6
F8
0C
06
08
EC
F4
FD
E7
E3
B2
BF
C6
CC
BA
E4
E4
D4
D8
DB
DA
E9
F8
22
13
07
FC
0A
F6
11
0D
0E
08
0A
07
FC
00
EF
E7
DD
EC
E0
EB
04
F8
F3
DD
DB
E3
F8
20
35
23
19
23
0B
FE
1C
20
0C
F3
F4
F2
F1
FB
0C
FB
0A
00
ED
02
FC
F1
F2
E9
CD
F7
FD
29
1A
24
26
21
07
FD
21
24
16
10
F5
F1
FD
FA
1F
0B
FE
F0
17
03
F9
F7
FE
EA
E7
08
1B
21
1B
0C
0F
11
15
06
15
35
07
FE
F5
02
F3
F7
08
14
01
03
00
F5
01
ED
FA
F5
00
17
F9
1A
1F
09
06
F1
05
0A
2F
1E
0D
0D
EF
06
06
F3
06
0B
0B
FE
F7
F0
F8
E3
E8
0D
13
0C
F5
FA
EC
FE
F9
E2
D3
00
12
1C
F8
03
EE
EF
EE
07
1F
0F
E8
F1
F9
E3
F3
07
16
13
07
E8
E1
D9
D1
E2
CF
BE
CF
ED
08
0E
F7
07
F9
F5
05
F8
F9
F0
EB
EC
ED
FD
F3
02
06
09
F5
F3
E5
E2
D2
CD
C2
B2
CB
FA
1E
02
FE
05
ED
0B
0E
FB
FC
FF
0D
2C
1D
1C
15
02
0C
12
04
09
FF
E4
CB
C8
BA
D9
F2
FB
17
06
03
05
ED
00
06
FD
0D
06
2C
44
2E
19
22
21
03
00
12
01
ED
E4
EE
F4
E3
EF
F4
07
0D
11
06
01
04
01
FD
F7
FC
1E
20
2A
14
0F
FA
FE
02
02
01
19
E5
FE
FE
00
E5
F4
F0
E9
05
0D
05
02
F7
07
EC
F3
F6
15
07
F1
15
0C
19
22
25
2A
0E
1F
1E
0F
03
0A
E0
DE
00
F3
FA
06
F8
F0
EC
FB
F3
FA
FA
0E
07
0E
1F
12
20
05
21
22
1F
29
2C
28
1B
13
EE
F5
F8
09
EC
FD
F1
F8
F8
03
EE
F5
F7
09
F0
F9
F1
13
11
09
0D
0D
19
04
FF
0C
12
FB
F7
0B
0C
02
FF
F2
FC
FA
FE
0F
08
F7
09
FD
0C
FE
00
F8
0D
FA
07
FD
FE
11
00
03
0C
07
10
08
FF
0A
FC
03
FA
0F
FE
0C
0E
07
10
06
FA
FE
03
0B
0C
03
FF
04
0F
FB
F6
0A
13
F9
0C
07
11
FC
FE
F7
0C
09
0F
FD
FF
02
00
04
07
0C
07
0F
FD
17
0F
08
16
0E
15
23
27
23
12
0C
04
0D
09
F8
00
F9
01
FA
F7
04
07
F7
05
04
FC
E4
E1
E9
EC
F0
F7
00
FD
21
32
32
27
25
27
22
09
FA
10
FD
FD
06
05
FB
0B
FF
F0
E9
D3
C5
D0
D4
DD
D7
F8
02
19
25
26
23
08
32
24
3A
23
17
0B
0E
01
05
08
FF
EB
D4
CA
BE
C1
CB
E8
E0
EC
E9
F2
F1
F7
0B
14
17
26
0B
18
34
2B
0F
08
0B
FF
FC
0C
FD
DC
C9
A7
C4
CA
C1
DC
F0
F1
F6
09
FD
F5
03
05
11
1B
F6
03
2A
4B
3A
0B
09
10
F9
FC
EE
D4
C1
B4
C1
D8
F0
F9
02
F2
FA
07
06
FF
0F
01
0B
02
18
0A
2D
37
51
1A
0A
04
FF
FB
E2
AF
AE
B0
D6
F6
F9
F8
03
F4
03
EB
F7
F1
F2
E5
FD
0F
22
12
3C
52
58
1A
10
10
FF
F4
E3
CA
BA
AB
CD
04
11
1D
2D
0E
16
F5
D6
CC
C6
D9
DA
E3
03
0E
39
71
61
25
0A
F8
00
ED
EF
C5
A5
A5
E1
26
23
2E
2B
38
27
14
E7
E2
D5
BF
CE
D9
D6
E3
18
61
5A
25
07
0C
07
EE
E1
C6
B9
BC
F7
05
05
19
18
35
4E
15
F6
F0
DD
CF
BF
A3
A3
A5
D4
13
26
1B
07
02
04
F6
F3
D0
D0
C3
DF
E8
F0
18
1A
25
3E
29
04
F4
ED
E4
D5
B7
9C
80
8C
BB
F1
03
F6
0C
FE
F6
F8
E6
D7
CE
CB
EC
02
00
18
25
25
21
18
00
F4
EE
F9
07
E2
A6
90
A5
E9
F1
FE
05
F9
FC
03
FE
D8
C1
C5
E9
15
10
0C
1C
21
18
09
08
E2
E7
F7
1D
FD
D2
AD
BE
E7
EC
01
04
FA
02
FB
EA
BD
D4
C6
E7
F5
0A
08
1C
1B
11
F9
FD
E4
EF
03
02
FE
DE
CD
D1
E3
EA
0C
09
F9
09
EC
EA
E5
DA
BF
C5
D7
ED
15
0B
00
FF
02
EC
E6
F2
0A
12
F5
EA
D2
C5
E7
E9
03
0E
07
F3
ED
01
0C
06
EC
D4
CC
E4
F0
E5
F1
02
00
01
04
0A
05
01
02
DD
D6
D9
CF
F1
00
01
FF
0A
FF
09
0C
3C
05
F1
E9
E1
F0
FE
FC
03
07
0F
10
0F
FC
06
E0
DD
E7
E8
DE
01
F6
FB
FA
FC
FF
0F
1B
1C
1D
1A
11
00
1B
09
09
0A
01
0A
06
0C
09
FA
F1
F2
EB
ED
EB
F3
F7
0A
07
0C
FA
FF
09
0B
FB
22
1B
15
16
15
14
08
06
05
14
09
FE
EE
EE
08
FF
F1
FB
F8
0C
0A
FB
F5
07
17
0E
0B
0C
18
1E
20
18
17
22
11
1B
FF
0E
14
F1
08
F8
FD
F1
F4
F1
10
00
00
FB
09
F5
10
EF
E6
F5
FF
14
06
12
0A
10
08
0A
15
08
0D
FC
F5
F7
F7
02
F4
0B
FE
0A
0C
FA
0A
F9
06
15
EE
E9
17
0A
14
01
02
FD
07
0D
20
06
F2
F2
EA
F4
EC
09
0B
08
FB
0B
10
09
04
05
01
F4
02
07
1C
2B
1F
15
06
0F
0B
0D
17
03
EF
FE
F7
FD
FF
12
05
0B
06
04
FA
FE
0C
FF
F5
FD
F1
07
F2
FD
07
FF
09
02
F7
EF
0A
F6
02
F8
14
FA
0C
0F
0E
F8
0A
06
0A
FB
F8
06
12
03
08
FE
02
F7
02
09
FA
FF
F3
F9
EA
F0
00
F7
FF
FE
09
F7
09
FE
FC
FE
0C
0B
0E
0F
05
08
FE
04
05
07
0B
F6
F7
EF
F8
08
FC
F9
03
FB
F9
01
FF
F9
FA
FA
FF
06
FA
F0
F4
F4
03
F3
FC
0D
06
FE
F4
03
0D
FE
09
00
F8
FC
F5
F3
FC
0C
F8
02
F8
FB
F8
F2
F4
06
FB
F9
F8
F9
04
F1
F5
01
03
FF
01
0C
F0
FA
F8
0C
FD
F2
F8
02
0D
FC
09
0E
FA
00
0B
0D
05
09
0A
FE
01
06
FE
0E
16
1A
1B
08
14
01
13
0B
08
FB
01
09
07
08
04
FF
00
F6
F1
F6
F6
F1
FC
10
12
02
1E
1C
1C
27
32
2A
31
1F
27
13
0C
05
01
07
06
F5
FD
F4
0B
F8
FA
F2
F7
FA
07
06
18
1C
16
04
13
07
F4
FA
E3
E2
00
F5
F9
02
FB
F6
EE
F9
F0
EB
F8
F9
02
03
01
FE
04
0E
0B
07
0E
F8
EC
CC
DC
CC
E6
F7
0D
07
0A
09
08
07
02
FF
F7
EB
F3
03
F3
FB
FE
11
19
06
11
0D
ED
E5
D2
B8
C9
D2
B5
CD
DA
D7
E1
EB
F1
FD
1D
1B
FE
DF
FB
F6
01
01
F9
FA
1A
18
1D
05
01
FB
CE
C0
AD
B0
AD
A9
B4
C0
D7
D1
C8
EA
1A
04
07
E0
F9
F6
00
04
11
04
21
18
05
FA
EB
EA
CE
CF
B8
B5
C5
CD
D4
D6
D7
E6
F0
F5
F8
F6
DF
E5
F5
FA
F4
0A
FD
11
1D
02
D7
F0
F3
E2
DC
E3
E5
D2
DE
EE
0E
00
F2
02
FB
F6
01
E3
C1
CD
E2
03
0B
0F
0F
06
13
03
DB
F0
EC
F5
E6
E4
01
18
0E
1E
03
13
03
FE
10
04
10
DD
CD
B5
EE
FF
FA
F6
FD
05
FB
F4
D9
FE
FB
09
0A
17
36
0A
00
0A
13
02
EA
09
FE
05
06
E8
E2
D9
DD
07
FD
F4
12
EF
DD
DC
F1
FF
0C
23
35
4B
6A
2E
F7
F7
12
ED
E6
F2
E2
12
1D
11
16
05
FA
FA
FC
F2
05
01
D1
F0
20
23
34
2F
54
59
4B
11
D5
F4
F9
02
FC
F4
00
18
27
41
49
1A
00
0D
01
0B
07
F5
E2
12
26
36
44
36
45
46
33
F3
EB
F9
19
20
20
34
26
30
47
40
2E
20
10
F4
01
F9
FA
01
FE
2C
30
29
39
2E
21
09
05
F3
F9
1F
26
29
2E
37
2B
30
47
30
29
25
0F
0F
07
FE
F5
05
05
23
20
1F
23
28
01
EB
F0
E7
16
29
2C
44
4E
4C
3E
49
2C
12
11
29
15
FF
F0
FC
0A
1C
02
1F
1A
2B
1A
1C
FA
F2
ED
FD
28
28
46
43
53
46
22
3C
32
12
17
17
12
FF
F8
0D
03
1D
16
18
0E
21
1F
06
04
EE
1B
0A
25
2C
28
34
3C
27
1B
22
11
18
12
0F
01
F2
FF
0E
FD
FC
09
19
07
1C
F6
0D
08
02
0A
04
18
14
28
1A
12
E6
F0
E8
E4
F5
FB
F8
F5
FE
FB
F7
08
FC
17
0A
F5
0E
04
FF
F8
0D
14
00
11
0A
04
E1
E7
C5
D2
BD
B7
CF
F7
FD
F9
02
F7
F1
09
06
FA
F1
E8
F2
EA
FD
00
04
00
FE
F3
F5
E4
EC
C7
BE
B7
BF
CB
E7
D4
FD
05
06
0D
02
F3
12
0A
FA
ED
F4
FB
09
12
08
FD
F6
E6
E6
D4
D3
C4
CE
D0
D5
D4
C7
F0
00
F1
07
01
F2
00
FA
07
02
FB
06
E3
F8
F4
F8
EC
F3
EC
EE
E3
E9
E9
E1
D3
EB
D5
C9
FB
F3
09
F7
09
F1
FF
0B
F6
EC
F0
E2
D9
EA
EC
D9
D9
E0
F7
F7
F4
EF
EE
E1
E5
E2
CA
CA
E6
F5
F9
02
08
03
01
F3
FC
E0
DE
C7
A6
AD
A1
A0
80
A9
B2
B1
C0
C8
C1
BF
BD
DA
E2
ED
FD
0B
FD
F2
0B
0B
05
FC
FE
F7
EE
DC
DD
BC
B8
A8
9A
AB
87
A8
A6
C2
C2
E2
E1
E8
FC
03
00
02
FD
06
FC
F8
F5
01
F1
02
FA
02
EF
F7
FC
F9
08
FE
F1
01
04
06
08
EE
F3
0D
F2
F3
FF
08
02
0C
F2
E0
F6
DF
DB
D9
F4
D8
ED
E6
D2
F3
E8
F9
FE
F0
E4
DB
D8
CE
D0
FD
DE
EB
CF
E2
EE
E9
F6
F3
CE
D4
E9
E2
DA
DB
D8
F4
E2
D2
DF
ED
E5
02
E7
DD
EF
D3
F0
DB
D7
F3
D5
E7
DE
E3
D4
E7
D9
E5
E9
E0
F0
F7
EF
E9
EB
ED
FD
DD
E0
E9
F3
D2
D1
C0
CC
C3
DF
E2
E0
F9
FA
F8
DF
FB
F2
FA
F8
D5
D4
D8
E3
01
07
02
09
25
0B
DD
E9
F7
CB
B0
CB
CA
D8
C1
E8
F6
E8
ED
E6
F9
E8
F7
E8
E5
EB
EA
02
29
1E
1B
46
13
44
42
39
2F
0A
05
EE
B3
A8
A3
C9
F0
EA
F6
E8
F8
EA
E9
F7
E8
D6
E0
E2
CC
F4
1E
2F
51
2A
32
38
4C
3A
27
24
04
BF
9E
A3
E7
F6
F7
F0
CE
DF
EC
D2
CB
E8
D5
EB
F6
07
10
3C
4D
49
6D
6F
5E
51
25
23
16
EF
BE
C5
F5
F2
D3
F6
CE
D0
E6
00
DC
E5
E3
F0
E8
1B
0A
2A
5A
4D
6B
79
2C
38
36
06
18
09
FE
FA
D8
D6
D6
CF
D1
E8
F4
F8
F4
2E
1B
06
F7
1C
26
32
4A
68
7F
6B
3A
4E
2E
13
29
2E
13
1E
EA
DF
03
DA
F8
E3
FF
21
4D
1C
15
FD
2E
22
2D
2D
45
45
52
4E
35
2C
45
2F
EE
1D
27
E9
F8
F6
E7
E2
E8
03
0D
23
55
3D
05
05
09
1E
2E
16
0B
33
05
18
2C
38
49
2C
2A
34
11
D3
C2
F5
EE
FD
EC
0B
1E
39
40
1C
F3
D7
F0
E4
04
EE
11
17
E1
DF
E4
0A
49
3D
33
49
29
2E
18
14
D9
F0
E4
EE
FE
29
0F
BC
9F
AE
D5
DB
CE
F0
25
54
FD
E1
09
07
43
4D
5A
39
4A
32
19
0B
EE
D2
F9
02
0D
03
D3
AD
C2
B0
CD
DF
D8
21
54
29
23
FB
F5
24
1B
2D
EA
06
0E
21
27
FC
DF
D2
FB
D4
FB
C6
A7
CB
EC
D6
CF
00
20
22
6A
25
10
04
0B
21
E9
F9
BC
A4
C9
00
14
FF
E4
D3
F2
E2
E8
0F
F7
F6
F7
D2
E5
FE
F3
24
4D
27
E5
F3
E9
E2
CD
CD
C9
A9
DB
01
1E
FF
F4
CE
FB
F3
FB
2E
06
06
12
F4
F2
25
08
3C
17
EB
E0
07
F4
D6
BC
C2
C7
D0
04
14
33
0E
EE
DD
E3
F0
18
38
1B
20
29
04
21
2E
22
47
0B
C2
E1
01
12
CD
D7
F5
D6
E9
01
33
1E
F5
FE
FB
EB
D6
F3
0D
26
39
24
2E
4B
5E
38
0B
E2
D3
F0
FD
02
18
16
F6
F9
21
48
33
22
E7
EF
DD
FA
EA
EC
18
53
1F
34
39
33
1B
FF
EA
C8
CA
E9
00
0F
14
0E
19
1F
44
30
14
11
EF
D9
E8
E5
D4
D6
14
41
52
4D
2D
2E
19
D4
E4
DD
D2
E2
D6
03
19
2A
29
20
29
2D
13
FD
F5
FB
FA
D6
FA
F6
F1
20
61
65
0F
1E
E9
00
CE
E0
D6
D0
E0
DB
00
07
16
16
38
47
25
01
E0
D2
CE
F8
F3
E8
E1
02
45
63
41
40
29
3E
0D
19
F0
F4
F4
05
0D
15
0D
31
23
10
09
E7
E7
E6
E8
E8
EB
F4
D9
B6
D2
0F
53
3B
33
45
3D
34
26
FA
08
20
1E
3F
3E
3F
24
2A
E1
EE
F3
D0
F8
FA
E2
F8
CF
B4
97
C6
15
19
13
3D
5C
27
41
48
53
29
32
22
2F
16
0E
F2
EA
E7
F9
E2
E9
EF
D3
D1
EC
DF
D0
ED
F6
D8
06
F8
14
14
49
37
52
54
54
1F
FD
05
E2
DC
FA
DE
F1
F6
F2
FD
F9
D0
DC
F5
DB
DB
03
FB
14
F6
1D
11
11
1A
20
14
33
01
F7
E3
E9
F3
D0
E9
FD
D4
DC
D7
F3
D7
DD
E7
DE
D6
FC
DA
EF
F8
DD
DC
07
EB
D6
E4
FD
DC
D3
D8
E0
D1
E9
D1
F9
E5
E4
D7
FA
EB
F3
E9
F4
DA
D7
F1
EC
ED
E5
DD
FA
D7
E0
DB
F8
DB
F6
EA
E8
E7
EE
E7
E2
D9
D6
F2
E1
EA
E2
EE
D5
DD
D8
DC
EA
E7
C5
E0
E1
F8
EB
DE
D8
EA
EA
E3
EE
D6
F4
EA
EB
EA
FA
E3
E7
F6
E3
F2
E1
D0
C6
C9
B4
B0
AA
C9
D7
D5
E4
CF
D3
CE
E2
CA
E1
D9
EA
E9
ED
EB
F7
F7
DF
E6
E4
E6
D3
CF
C9
A8
9E
A9
C3
A6
D7
F3
E0
EE
F0
DD
EA
E8
D9
CB
E3
E4
E7
DF
E1
E5
E9
DF
DF
E1
DC
BD
AD
B0
A8
BF
E8
E8
F9
F3
ED
EE
ED
F9
EA
00
DD
CB
FB
FD
F6
D9
E4
F0
E4
F3
F6
FE
0A
E2
EC
E0
D3
F6
EA
0B
F2
F3
D6
C6
C8
E2
F1
EA
E8
CE
F6
E1
E3
F8
EA
E9
F1
FD
F9
14
FC
FD
13
08
2C
14
12
08
EB
EB
EA
01
01
06
08
0C
FC
09
FC
F2
F2
E4
F2
F0
FE
05
FA
FA
07
03
1F
2E
28
12
06
04
E4
E8
F2
F7
23
2F
30
37
1C
20
09
ED
F5
E7
F4
FC
03
12
04
16
14
2B
1F
1A
19
27
22
04
12
0C
0A
0F
3E
19
32
21
37
31
12
0F
08
FC
F8
FC
01
0C
11
16
15
FB
20
1D
2A
22
37
2B
40
2E
35
3F
2F
21
26
37
38
07
2B
05
0F
F1
F7
E1
0F
20
2B
02
EC
05
FF
2E
2F
28
31
2F
61
70
5A
44
36
2C
1A
1D
24
06
0B
15
03
ED
E4
F2
10
3C
37
13
01
0D
30
2F
2F
32
39
55
7F
7F
53
34
2F
F2
13
EE
FA
E1
D9
0E
05
FD
F8
EA
16
27
29
F8
F9
18
12
1F
0E
FA
F0
07
63
64
3E
1F
06
D2
E7
BF
CE
B9
C1
FE
0C
E8
DE
F5
06
14
27
00
D7
E8
07
F6
EF
BF
BC
EB
34
46
28
0F
FF
DB
F4
CF
B6
A0
C4
F6
FE
E9
F1
E9
FA
0C
18
D8
C9
DB
D7
D3
DA
AC
CA
0B
3D
40
2C
3D
14
1F
08
E5
D1
D8
D1
05
D7
ED
E3
F1
E8
00
E5
CC
DD
CF
DA
B6
BF
BD
D0
F9
27
29
16
1C
13
12
03
F9
07
D6
D8
C0
DA
DE
EB
D7
E7
DB
ED
DE
EF
FC
EA
E0
A8
A8
DB
27
3A
2B
2B
02
EC
F5
EB
E2
D9
D8
D6
C5
ED
D9
DE
EF
DF
E4
EA
E0
EA
F4
FD
F8
BA
CF
05
30
4C
29
FD
EA
CE
F5
FA
FF
E2
E5
F3
C8
DC
E2
EF
EB
EF
F1
DC
DB
F9
E2
00
F7
D6
E7
E5
36
23
03
CE
D2
E3
F7
08
EF
DA
B0
A4
D5
F5
F9
EE
E6
FE
06
D8
DC
EC
EB
08
F9
D0
D1
EC
F8
03
E2
BF
C9
D3
F1
E7
D8
D2
AE
D5
F5
F0
E8
DA
F4
DC
E6
C8
C8
D7
F4
FD
E2
D5
CF
E1
EF
CA
CF
E2
EC
D2
CB
AE
C9
BD
BA
E1
F7
E5
FA
F5
DF
E6
D8
BC
CD
FD
01
EF
E1
E7
D9
DE
D6
E2
E4
E5
CC
BF
C8
D2
C3
BD
AB
D4
EC
DA
D9
E4
FA
E6
EF
E0
E7
02
07
FD
E2
F8
F4
E3
DF
04
EB
01
DF
CA
B0
C7
A9
B6
BD
EE
E7
D9
D9
F1
F8
EA
D7
F7
0C
00
11
E9
E9
E4
E4
EE
E9
07
FD
06
F3
DC
BE
B5
AE
BF
C6
E1
E4
EF
E4
F4
E4
D6
E7
FA
0C
2D
1D
0A
ED
F7
1A
F1
1A
15
FE
FC
EC
CB
D4
D3
E4
D7
CA
D4
CD
E4
F5
DD
EF
E4
E0
00
F3
07
FC
37
28
17
2D
35
1C
11
17
16
1D
18
10
0F
FB
F5
EA
D8
F9
E6
E0
F6
E3
DE
EF
EF
EC
F0
04
28
13
20
32
21
2D
35
3F
30
3F
30
0A
EB
F8
FB
EF
E6
DF
F4
E5
F4
DB
FA
E2
F3
F9
E5
F6
E7
E3
E8
FF
F6
FE
03
EC
FF
F4
F1
F1
EA
F8
E6
E6
EC
DD
EF
F2
D8
E0
EE
D0
EA
EA
D5
CE
E4
CF
E0
ED
D4
DF
CE
E4
E2
D4
D1
DD
EC
E2
E0
D7
CC
D0
EC
E9
E0
D9
DD
D0
E5
EC
D2
ED
E0
EA
D1
F2
DD
E7
DE
D0
D5
D3
E6
EB
D7
EE
E7
D4
DC
CC
EB
E1
ED
D7
DF
D8
E2
E5
EA
EC
F6
E8
DF
EA
E6
DA
EA
F2
F9
DE
EE
E4
F3
F2
D9
EA
DB
DA
D0
E6
E3
ED
D5
DF
ED
DE
CD
D6
E8
CF
E8
F3
F9
F5
03
0F
13
FA
18
09
07
FB
F9
E7
DF
D0
E5
E5
E5
D7
CE
DA
E4
C7
D7
E2
D6
CD
F9
FB
F5
F0
01
26
00
FD
03
0D
F3
21
0A
FD
FC
ED
DA
E5
D0
E4
D1
D5
CC
CA
E8
DF
EA
E6
E4
EA
D1
E8
E7
E1
D8
FA
01
16
19
25
18
08
FE
EB
F3
E4
CD
D4
D0
EB
CC
CE
DC
F6
F5
F8
02
02
0C
18
0C
08
19
14
2B
2D
2E
19
28
0B
FC
ED
D4
CE
D2
D9
CC
DB
C7
D2
D9
E8
08
FD
13
0C
21
22
2A
2E
3D
2E
45
32
2D
01
0E
05
1F
FB
EA
E8
DA
DA
D7
D7
BE
C8
FC
F7
25
16
02
0E
21
17
1B
25
36
2A
10
FB
17
FE
F6
12
28
15
E3
EC
CC
E8
DF
E9
D4
DD
F1
03
1B
08
EF
01
E7
16
37
26
0A
EA
F5
EF
F2
F9
E0
17
65
30
EC
E9
EE
E4
D3
D4
DB
D0
FF
0B
17
19
F2
02
FD
31
4B
30
EF
DF
D9
CF
F7
FD
07
3A
5B
2F
EA
E7
E5
DB
EA
F0
EA
D6
1D
3F
28
11
0B
23
39
75
70
37
E6
01
F8
F3
E6
F5
06
31
18
04
F6
E2
E7
EE
CD
F1
FE
FC
57
48
36
36
41
2E
49
50
4E
1C
E8
00
FF
F5
F2
D4
FA
18
DB
CD
E3
CD
DC
DB
CC
EF
10
3E
56
61
39
44
39
02
1E
1A
FF
ED
E8
E1
EE
F6
DA
0C
0A
18
DC
C0
BD
D2
D4
D6
DB
E6
E9
1A
43
41
41
47
3D
FE
02
F7
EB
E4
C2
CA
DD
F3
0A
1C
2F
3A
F6
C1
D2
D8
CF
EC
DE
CF
E5
FF
06
0A
17
1B
38
01
FB
DC
B0
BB
B8
DA
07
FB
32
31
3A
44
F8
B2
B5
D2
E1
D3
E1
C2
E5
F4
DD
D0
F1
EB
06
FB
CC
A8
AB
AC
AF
CC
06
29
26
27
46
4F
F8
9E
C4
CE
E1
DE
D9
D4
E0
FA
FC
CB
B6
C5
E5
BC
94
80
A9
C1
D3
04
21
31
1F
26
47
13
ED
9A
C7
E3
D4
E8
DF
D0
E5
F5
E9
D8
CA
E3
DF
C2
9F
99
D0
D8
F8
24
12
28
2A
26
39
FF
D1
C7
DC
D2
E8
D2
D3
F1
ED
F7
09
05
17
02
18
FD
EB
E5
F9
F5
F4
11
FE
1E
0B
12
0D
0D
E3
D3
E2
CC
D6
D6
EE
D8
E7
0F
08
10
3C
20
2A
21
18
27
1E
0F
09
18
04
12
15
01
04
E5
D6
DE
E3
E6
E4
D8
D3
ED
EE
11
26
29
1B
25
27
24
26
0B
19
22
0A
00
DF
E1
02
0B
E5
D8
D1
D9
D6
D1
E6
E1
D1
EE
E0
05
11
04
11
0A
04
12
15
33
26
30
1A
0A
F4
F1
EF
DF
DB
F6
D6
F0
F1
D8
EB
D7
DC
E4
EA
26
0A
1B
18
18
29
1F
1D
2E
2D
12
14
FB
D6
CD
B7
CF
D1
D2
E6
CF
D6
EB
E5
EE
CC
E4
ED
08
04
1B
04
05
29
03
2F
16
F9
00
ED
FB
EA
DC
D9
CD
E9
E2
E8
DC
D3
E0
D9
E3
EA
EA
F3
FC
F9
0C
31
31
2C
1D
3E
34
18
14
2E
2B
22
36
0F
10
F2
F9
DD
EB
EA
D7
EF
D8
EA
D6
DC
EA
E6
F5
D9
F3
0F
1B
0F
27
1B
22
27
10
F8
FF
01
FC
F5
D9
EF
E8
E1
E2
ED
E1
D7
D0
DD
DF
E5
D1
E3
E7
DB
EF
DC
E8
EC
CC
E1
DD
EA
DC
DF
E6
D6
D6
DB
D9
E4
EC
EE
E7
ED
DD
EB
D1
CF
E6
E1
DB
E6
DD
F1
F0
CF
E3
D5
D7
DE
D4
D0
D9
D0
D7
DD
EC
D5
F1
E9
F5
F4
D6
CE
D7
E8
C9
E4
DD
D5
D5
D9
CF
E0
E2
DC
E7
D9
C8
E4
E0
DB
DF
EF
EC
DD
EC
F0
DD
E3
E0
CF
D8
CC
D2
B3
B4
AC
BD
B3
A9
B9
A8
C2
CA
C5
E5
D3
DB
E5
E3
E5
DA
D3
D1
D6
EC
F1
EB
CB
D1
DA
D7
B8
B9
A4
BB
AE
C1
BD
D1
DF
EC
F9
03
FA
F8
D6
E1
EC
DD
CF
E6
CF
F4
DE
D1
E6
ED
F4
DF
CC
B7
BD
DB
DC
C4
BC
E2
F5
EF
1B
FF
F6
1D
27
F4
13
F0
E6
D8
D0
EC
E3
EB
E2
01
0C
F9
06
F7
04
EF
E0
DD
DD
EA
FA
F7
0C
0F
ED
0C
10
1B
13
F2
D8
E2
E6
CD
D6
EC
EF
21
1E
01
0B
0D
1E
E5
FA
F1
E2
E4
F7
12
1B
0A
12
2A
39
1E
1C
ED
F5
D6
E2
EA
DC
F4
FF
34
47
11
0F
14
F7
FA
10
08
1E
F3
F4
30
40
37
2A
02
28
37
F7
FA
D4
F3
E8
CD
DF
F7
01
36
22
04
F7
00
0B
0D
08
0F
0D
17
24
24
3D
38
36
20
19
22
08
E3
EE
EB
DB
D3
F3
01
14
2B
1E
0E
05
01
07
0B
04
0D
F4
13
26
23
43
2F
32
36
2E
F3
02
E0
E8
D5
E1
EB
F5
F7
0F
FE
F0
15
0F
0B
F6
0F
0C
F0
D6
19
30
20
3C
28
2A
26
F9
B0
D3
F2
D3
D1
EC
E9
DF
FD
F3
D8
01
0F
1B
20
3B
40
35
0D
B5
00
41
3C
52
29
14
EA
C6
87
90
BC
E8
EA
DC
DF
F1
03
09
EB
34
39
34
41
6F
7F
6C
00
DC
04
16
2A
55
2D
19
E9
E5
B1
98
C3
DF
DB
EB
CD
ED
F6
04
42
50
62
35
3E
5A
6C
31
DC
EA
E2
17
29
56
21
0E
04
F3
D0
AB
E4
C6
E5
E6
D3
E4
E8
16
45
31
49
4F
3E
4C
3D
2D
D3
B5
DA
F4
29
37
38
26
2B
0B
0C
EA
D0
DC
ED
DE
F6
E8
F9
06
23
16
29
27
45
3A
43
17
BD
AB
F6
06
46
2D
20
19
2C
3F
23
EE
B2
D1
E4
DB
D7
EE
EA
01
EC
0C
2C
22
EF
DC
E7
00
C1
C8
F3
10
34
39
24
46
1E
21
16
EE
B7
D9
E1
E6
D4
E6
DC
17
F9
F9
FC
D9
B0
96
C5
BC
C2
D4
23
22
40
3B
0B
12
1B
0F
EA
B9
A4
C5
DA
DA
E3
E1
F9
08
0E
F3
D6
D4
BA
A5
A3
AF
B0
E3
12
38
11
1E
09
FE
02
EB
CB
BD
B4
D7
ED
E7
DB
DB
20
38
26
0B
BE
C4
A0
A5
B1
9C
AB
E3
0F
07
16
FA
0C
EE
E8
B8
AC
AE
D1
E8
ED
F2
E3
D5
07
1E
2E
E7
CB
C3
BA
BC
C4
BB
CB
FB
04
03
16
08
E7
CB
C6
CB
C2
A8
D0
D2
D1
E7
DA
ED
EA
FF
EC
DE
CD
CC
CE
CD
02
F5
E0
E2
FB
FC
F8
F4
E5
F0
D5
BF
B9
C1
D3
D9
F0
F4
D3
FA
E5
EE
BA
BC
D5
F2
E5
F8
24
18
FA
ED
FC
0A
0A
FD
18
EE
D4
C5
D3
B8
EA
EA
D3
D7
CE
E8
F9
08
F4
F6
17
0B
00
48
27
19
FB
0E
1C
15
2C
07
D6
CE
D5
BF
C5
DC
F0
F0
D2
CE
F3
E5
FE
14
33
5A
56
38
2C
66
3D
3E
3A
3A
22
39
37
EB
E2
C9
DB
C2
D5
CC
DB
F4
EB
D8
E3
F2
D5
FC
19
27
38
44
64
73
65
5B
5B
3B
2D
30
ED
FB
E9
D4
CE
DF
ED
CF
E8
D2
DC
CD
DC
E2
E9
DD
E1
E3
F1
E3
F0
14
09
15
14
FD
F6
F9
F5
DE
F9
E3
E9
F2
F1
E6
D2
D4
D4
DD
F2
D2
CF
D9
D5
F3
DE
E1
DE
DC
F2
E4
DC
E0
DF
F4
E1
F8
DB
E6
DB
D6
DF
D4
ED
EA
F2
F0
EC
F2
E8
E4
F1
CF
DE
EE
E8
E3
DC
D4
E8
E4
D8
E4
D6
D6
DE
E1
EB
D7
E4
CF
E0
D5
D8
DB
D1
E9
F1
F1
DD
F0
DF
DB
D4
EF
DC
F7
F0
D9
D2
E0
EE
F0
E9
E9
F2
E1
DF
DC
EB
DE
E0
E2
D1
D2
DB
D1
D9
EE
E6
F4
FA
0E
F7
02
08
02
F7
09
FB
FA
DC
D9
DD
E5
DB
EC
E5
D3
EC
D5
E5
F0
F0
E3
DC
E9
DC
F5
09
02
0A
16
FE
0B
0F
1B
08
16
06
F4
EC
D9
E5
EA
E2
F1
E1
CE
E3
E9
E6
D5
E2
E5
D6
F1
05
24
0B
0C
03
0A
10
F7
01
FD
F4
DF
CA
BB
C3
C7
D5
ED
D2
D2
DD
EB
F0
D9
CD
CD
D3
ED
E8
1C
17
18
1D
06
29
16
19
0F
FF
EA
F9
D8
E3
CA
E7
E4
D5
E1
D4
E3
CE
DD
D9
CD
D7
F9
0C
02
04
28
1F
27
19
18
16
0B
F0
F2
DC
D4
E5
E9
F0
EA
DC
D3
EC
EC
E0
CE
D7
C4
E2
F1
0E
0F
16
1D
26
2E
2D
13
14
E9
02
F2
F8
F9
C7
E1
E7
F2
D6
E2
EC
D0
C6
C0
C4
B4
BA
F2
F4
0C
04
10
FF
2E
17
02
02
E0
F0
EC
F4
EF
D3
C3
F4
E9
E6
E2
D3
DA
C6
C8
D7
C1
00
0A
F3
F8
11
F4
00
07
FC
F3
C7
C9
D0
FD
ED
F7
EF
07
0A
D8
EB
D3
CF
E2
C9
B3
E6
F6
F5
08
F5
FE
F5
D8
DC
EA
D0
CA
D5
E0
EB
D3
ED
D9
E9
0A
07
F1
ED
E0
CC
CB
C3
B7
D3
F9
F8
E1
E8
CE
D1
A7
A6
C0
BD
BF
C2
DB
F4
F0
D1
B0
C9
EB
DF
EF
D2
E3
D7
D1
B4
B6
C0
C5
F8
ED
DB
D4
C8
BD
CD
F2
E8
D6
D3
F3
05
D7
AE
80
8A
C6
DF
E1
D5
E5
E4
E3
BA
B0
B7
DA
07
19
06
01
FD
0A
3A
12
00
F9
0F
00
14
E9
CF
B2
E5
D5
DD
E5
F4
D8
DE
D6
CC
A9
D4
13
2F
47
3A
21
1C
45
33
3B
29
00
08
13
EE
F9
FC
EF
F0
FF
D6
DC
D3
E2
ED
CC
EB
CD
09
29
1E
1C
25
34
4D
59
33
20
22
2A
1C
FC
ED
F5
05
03
F7
06
0B
F5
E2
E1
ED
E4
F7
DB
04
30
0E
03
14
1D
51
36
35
24
06
06
0E
1B
02
0E
3A
38
2A
28
29
FF
EC
F1
E1
DE
E5
D8
1D
21
0D
EE
ED
08
0C
05
00
FC
0D
15
0E
38
26
1A
31
3B
12
0C
2D
EA
D2
D5
E2
D9
F1
00
11
2F
36
F5
E4
EB
F7
00
EC
F9
0B
31
26
2C
25
24
32
46
30
25
06
E9
E7
E2
E0
D2
E9
09
1B
21
37
25
1B
07
04
08
03
0F
2E
2B
3F
2C
3A
41
3E
42
25
16
0A
DE
E5
D0
D9
F2
DF
1D
27
16
3E
31
39
10
22
1E
24
29
24
27
31
4A
39
34
33
27
22
01
E3
E5
E8
D3
EB
EE
FE
1D
06
14
18
11
2A
17
1C
19
36
3D
10
18
3B
32
39
1B
28
2C
1B
01
ED
DA
E3
ED
EF
EA
EA
F7
07
F5
ED
09
0A
17
28
10
1F
0E
F4
11
FD
11
23
1E
2B
04
F6
FE
F6
E9
D9
E4
D3
E0
E8
E4
F9
D8
E0
F2
18
FF
03
00
F8
FC
F0
F5
F3
02
19
15
0B
02
F3
E6
DE
D0
D9
DE
E3
E3
CC
DA
DB
C9
CF
DA
E7
F0
FF
F2
F0
FA
DD
FD
0C
0F
F8
F0
0D
FF
F2
FD
F2
D7
D6
EF
F0
EC
E1
CA
CB
D7
DA
DA
DE
D8
DC
E0
F0
D8
E7
D3
CF
C6
B3
BF
C4
DC
E5
D8
E4
E9
D3
CF
F1
E8
E7
F0
D5
D0
D7
D3
E0
E3
E6
E9
E6
C7
CE
C1
BB
CF
CC
E6
CA
E5
E2
E2
D9
E0
D3
DC
D2
D5
F2
ED
EA
D1
E8
F0
D8
D3
E6
E0
CE
D4
DA
E5
DD
CF
CB
D8
E8
E1
DC
D5
CF
D5
EF
FF
ED
F0
E3
02
F4
E8
F0
DE
FD
DF
E3
03
EE
EF
F7
01
FD
E6
FF
E8
E2
FD
F9
F6
EF
00
F8
EB
E1
E8
DD
F8
03
F4
EB
E3
F1
01
05
01
E5
F5
F7
F2
E9
E8
05
F5
E0
00
EB
E3
EC
E6
E0
02
E3
05
EE
FF
DE
F7
04
F3
F9
08
05
1E
0E
0E
01
E4
F7
02
0E
05
07
03
02
FB
F5
F7
E2
E8
F7
EB
DE
E3
0F
F4
01
11
04
24
4D
58
4F
53
45
45
38
41
33
1C
FE
EF
FE
E8
EF
F8
EC
F1
01
FA
ED
11
0D
29
35
4A
45
61
3F
4B
54
4B
25
3F
0A
2F
2C
12
F3
F6
DD
E6
E0
FA
EE
EA
03
DD
F8
13
2E
35
20
18
2B
27
0D
26
1D
06
32
25
EE
F4
1B
ED
D9
C4
C3
F3
02
E3
05
FB
E7
E4
1A
33
40
1B
06
2A
24
12
12
0C
16
FD
03
17
04
E5
D5
FD
F2
DE
EF
F4
01
FB
F9
FB
F0
FB
FA
56
49
24
32
2B
21
18
E5
05
06
F4
19
E6
D1
F0
EA
E0
ED
EA
F3
F4
F2
EC
E0
05
DC
FD
26
57
41
0F
23
05
0D
11
DF
EA
FE
E6
E5
DA
E6
F7
F0
0D
08
19
CA
D0
CF
E7
F7
E2
05
01
1C
38
25
0F
34
10
0F
DA
CF
C8
F0
05
FF
00
DA
ED
15
2E
36
1F
EA
80
A7
E8
E4
DD
FE
F0
11
3C
EC
F4
13
E3
C1
CB
A8
B4
F3
1E
E9
F7
00
12
1A
22
2A
0C
DB
96
A7
D1
DE
EC
00
07
01
08
E8
DD
F6
C9
D8
D9
EA
1E
44
44
34
18
18
28
23
38
FF
1A
1A
FB
D5
FA
E2
06
F7
03
F0
F0
E6
E4
E4
E0
10
F8
2C
31
5F
6A
52
4D
31
18
1A
12
1C
3F
5B
41
E2
F0
FE
EA
F9
EE
EA
E1
F2
EC
CD
02
EB
FF
16
25
49
4F
65
55
29
1E
23
0C
06
EF
25
EA
DC
F0
DF
F7
F2
FC
07
DD
E3
D5
CC
C8
F5
ED
2E
43
62
56
58
37
2B
21
1D
01
F4
D1
E9
C6
E2
E9
02
F4
E6
EC
F9
EB
C9
C1
D2
BE
C8
DA
14
42
75
7A
5E
13
0F
1D
33
1A
0E
19
FD
DF
C9
EE
E3
E4
E8
06
0C
F4
D8
D3
DB
EF
E4
E0
09
49
53
56
16
E5
E1
1D
46
08
FF
F7
FA
E0
B8
C4
E5
E5
05
04
2B
05
D9
D3
EF
F7
BE
C2
D4
1B
0B
04
CC
0E
2D
2D
3F
08
0F
00
0D
DC
B8
F2
00
EC
05
0B
26
1B
10
F6
EB
DB
DD
B6
DC
EA
E5
DC
0B
34
47
38
15
02
0F
0C
ED
A6
B1
EA
F0
F7
EE
03
3D
07
30
0C
01
E7
E7
D7
CB
D4
D4
02
21
4C
5A
3A
22
0A
0D
03
FB
CA
C4
D5
F6
F3
F3
0F
31
0C
00
18
28
04
06
FC
C3
DB
0F
43
45
29
28
2F
03
1B
FE
E6
E5
B0
E1
EF
FD
E2
F3
F8
27
02
E7
0D
1A
FB
02
E9
ED
F9
33
3A
2C
2A
17
22
0C
FB
BB
C8
B7
A8
E1
E5
02
EE
E3
0E
12
0E
E8
E0
EC
EB
E6
FD
03
0D
15
19
24
28
1A
F4
EF
D4
B8
B3
B1
C8
DC
F6
F9
DF
E9
E5
24
2B
11
F2
14
01
0C
FA
1A
FB
21
29
24
FC
06
21
08
D1
C5
B6
D8
D4
EE
FB
E0
DF
00
FD
0F
22
25
3C
62
5E
37
56
56
47
2C
20
34
51
1B
D9
01
C3
C8
C5
DB
F5
EB
EC
E6
06
F4
07
F4
E1
EA
22
3A
3B
4E
4E
58
67
47
3A
08
08
10
FF
0D
DE
DC
DE
DA
E7
DF
F3
00
F2
E5
FB
E4
E9
F7
FD
E9
F6
E2
F5
FE
F0
E4
F3
D7
F6
FF
F9
02
E2
FD
E7
FB
05
05
E2
E7
E7
F3
DE
FC
F6
E6
E5
F8
E0
EB
E3
F7
03
E1
E2
FE
E4
08
F4
F7
F7
F2
04
F5
ED
02
F5
E2
D8
DD
F2
F9
F6
FC
F8
E6
ED
F5
D6
E7
DC
F4
E9
F6
E7
E8
E6
E3
F3
F2
F0
F6
D9
FA
F1
E3
D7
D8
ED
EA
DA
EE
F7
EE
FE
FF
E3
F6
01
FA
E4
E9
07
ED
ED
E1
F0
EF
F3
FE
E0
F5
E5
DC
F2
F9
F3
FD
DE
E9
FD
F1
04
FC
07
15
24
13
0D
07
07
E8
00
F6
EF
F8
EE
EC
F8
F6
E3
E1
F2
DE
EF
DF
DC
F9
E1
E9
0C
09
1A
40
51
4D
3F
26
1E
04
FB
DF
EC
D6
E4
E8
E1
FB
F9
E4
D9
E8
D8
FC
E7
E2
EF
E2
FB
2B
37
56
43
35
43
4A
29
28
17
EB
D8
E5
B8
D7
E9
ED
E2
F4
E1
D8
F4
D6
DB
D1
EE
EC
FB
01
17
0F
05
FA
0A
F1
13
27
24
31
26
4A
06
C5
E7
01
ED
E0
DC
DE
EB
DF
E9
EA
E3
00
0E
09
F9
FD
FB
E2
D7
D9
C7
C4
E1
F2
22
1C
3C
26
25
09
EF
E9
F9
EB
E7
DC
ED
F4
01
0E
31
09
0B
0D
EF
EC
CD
B3
C8
C6
F9
0C
F0
2A
3D
49
33
17
F5
FA
E3
FC
E2
DC
FC
EF
0E
0D
07
28
15
1C
31
1C
F6
DD
E1
F8
FD
21
26
1A
1D
46
57
37
01
EF
E2
F4
EE
EF
10
0A
05
14
12
36
37
3C
1F
11
16
F2
DF
0D
1F
23
1E
1A
2E
64
68
49
18
DF
DC
FA
EF
D6
F4
11
32
30
26
12
1F
2E
18
17
32
12
F0
09
07
09
1B
06
12
78
7F
42
13
F6
EE
F4
DA
E6
E7
04
1A
24
14
0F
FB
D1
F9
2B
3E
EB
C3
BB
D5
E7
BE
DF
FF
58
7F
4A
FD
F4
D9
F0
FA
DE
C7
DF
E3
F9
FD
F5
D8
CE
FB
36
1E
CD
C1
A0
C5
D1
D2
CE
BA
0B
3B
26
FA
ED
F7
EA
E2
E3
BE
C1
B9
D9
C8
DB
B8
E9
14
21
09
E7
B3
B2
C4
C7
CC
C6
D0
E2
11
03
05
F6
EF
F3
FD
E7
A5
90
BD
BB
C8
E2
E1
F6
27
17
08
E1
A5
B2
C9
B6
BB
C5
AC
CC
FE
0D
F8
E5
F1
F2
D9
E3
A5
AC
E0
F0
FC
04
07
0C
1C
22
23
EC
BB
AC
C3
C0
B7
C6
AB
CB
0B
17
04
F8
F1
DA
F6
F9
D0
D8
FF
DA
F0
2F
07
22
32
47
1C
E2
CB
C2
BB
B7
B9
E1
CB
01
1C
37
18
FB
E9
DC
E5
FE
F1
EA
F6
F2
FA
1A
3D
43
28
20
1C
E9
D8
BB
CD
E6
D2
E8
FA
0A
29
37
E7
DD
F8
EE
E6
DF
02
0A
05
0D
16
41
30
31
4C
3F
FF
F5
ED
D8
EC
FE
04
F4
11
39
4A
16
F2
F2
EA
DB
E3
E4
F2
FF
18
25
33
56
57
3B
53
38
12
15
FE
19
1B
05
10
2D
46
33
3D
0F
F9
E9
DB
E0
FD
F2
1B
13
34
3E
22
29
46
4C
60
38
19
2D
13
26
33
3B
41
4C
4A
3F
05
04
EA
EA
E3
EB
E5
E2
0F
02
45
3F
16
1F
16
23
22
43
4F
26
28
3D
3D
26
38
24
3B
4B
FD
F9
FA
EA
D7
FB
D8
00
13
24
35
40
1F
14
01
1F
3B
53
34
4C
24
36
22
24
13
0F
17
13
05
E5
E3
F9
E7
EA
DA
E0
D9
D4
E9
F9
09
19
2C
32
5A
4E
55
54
4C
24
29
2F
2E
04
12
08
E9
DD
DD
E2
F3
EE
E4
F6
CA
9F
8E
AF
DA
F5
E0
0A
3D
3A
4B
3B
36
FB
25
FA
D7
C7
CE
FE
F5
F4
DE
DD
EE
FA
FA
E0
E0
BD
C2
A8
AD
CD
D7
DC
D7
D7
DB
ED
02
EC
E6
E4
B8
BD
DD
EE
ED
EA
F8
FB
EB
E5
D9
E8
D9
D7
D9
C8
CF
B5
B6
BF
C3
AF
A0
B4
CB
CA
D2
E1
C4
DE
E2
FA
E3
DF
F5
EA
E0
D7
F8
E7
EB
E8
E3
F4
E9
D8
E9
F7
D7
E7
CC
EF
E3
EB
EC
E3
F6
E3
E6
EE
DC
F1
ED
F3
