1F
61
2D
80
12
4E
CD
D1
63
51
A5
36
A5
43
4D
73
EC
3A
03
05
AD
E7
0E
7F
04
E0
BF
7A
3E
52
84
DC
A5
A3
E6
FE
D5
7F
ED
F4
C5
79
E1
71
D7
73
28
7C
9A
08
71
6D
3A
DD
80
E2
51
F5
99
85
30
62
F9
AD
E7
12
38
27
E1
AD
A7
7F
AF
0A
1F
49
EB
17
5D
0E
35
81
49
BD
21
4A
C2
07
E6
07
3E
0B
D9
25
2A
35
FE
E7
E8
57
FA
35
8E
22
2A
56
06
ED
0C
E8
1D
7F
E9
DC
11
A6
3F
01
22
80
6C
C3
20
41
56
2E
3E
CC
04
3E
21
3D
40
80
A8
73
F5
9E
DF
06
EE
20
18
25
2D
E2
42
20
F4
E6
61
0E
46
7D
92
AD
0F
7F
6A
C8
C3
49
38
D4
19
DC
14
01
24
81
BF
FA
C7
CE
47
AE
DD
1C
E7
4B
94
7C
7F
87
07
6C
78
27
75
01
28
DD
F8
80
14
F0
05
46
AC
49
8E
DC
E7
48
40
2A
29
AC
F6
29
56
1C
DE
C0
E4
CA
80
3B
48
1F
05
E0
35
B2
CB
AA
77
BF
7F
EF
BF
DE
AE
25
2E
F8
C2
3A
9C
0F
CA
E4
E9
1A
47
30
7F
25
4F
D9
14
CA
D1
3F
FD
29
