2C
5B
26
C1
CF
A0
24
07
E1
C4
22
21
8F
D7
FA
80
B8
9A
37
C0
02
52
27
27
19
84
A6
8C
6C
34
7F
E6
26
06
3F
21
81
CD
1B
F1
C9
3D
C5
1A
85
CA
58
60
05
A4
22
C1
DF
1D
2B
50
E8
1B
E1
3D
6B
E5
80
E7
92
1D
80
5B
F9
1A
40
32
5B
F0
C4
1A
06
EF
D9
E8
99
71
3F
C3
41
D3
35
C8
18
AB
DE
29
40
AA
AA
7F
70
3E
B0
FE
60
AD
F4
22
4E
27
3D
81
02
80
D2
05
C5
07
9B
95
E2
3C
AA
47
AB
AB
0E
78
80
3B
1F
22
F5
BE
2B
D4
53
ED
4E
81
2B
E5
16
27
A6
32
CB
C2
A7
39
C0
05
4A
16
91
C0
D5
08
2A
25
25
6C
0C
80
